{
  "version": "1.0",
  "truncation": null,
  "padding": null,
  "added_tokens": [
    {
      "id": 0,
      "content": "<|endoftext|>",
      "single_word": false,
      "lstrip": false,
      "rstrip": false,
      "normalized": false,
      "special": true
    },
    {
      "id": 1,
      "content": "<|pad|>",
      "single_word": false,
      "lstrip": false,
      "rstrip": false,
      "normalized": false,
      "special": true
    }
  ],
  "normalizer": null,
  "pre_tokenizer": {
    "type": "ByteLevel",
    "add_prefix_space": false,
    "trim_offsets": true,
    "use_regex": true
  },
  "post_processor": null,
  "decoder": null,
  "model": {
    "type": "BPE",
    "dropout": null,
    "unk_token": null,
    "continuing_subword_prefix": null,
    "end_of_word_suffix": null,
    "fuse_unk": false,
    "byte_fallback": false,
    "ignore_merges": false,
    "vocab": {
      "<|endoftext|>": 0,
      "<|pad|>": 1,
      "!": 2,
      "\"": 3,
      "#": 4,
      "$": 5,
      "%": 6,
      "&": 7,
      "'": 8,
      "(": 9,
      ")": 10,
      "*": 11,
      "+": 12,
      ",": 13,
      "-": 14,
      ".": 15,
      "/": 16,
      "0": 17,
      "1": 18,
      "2": 19,
      "3": 20,
      "4": 21,
      "5": 22,
      "6": 23,
      "7": 24,
      "8": 25,
      "9": 26,
      ":": 27,
      ";": 28,
      "<": 29,
      "=": 30,
      ">": 31,
      "?": 32,
      "@": 33,
      "A": 34,
      "B": 35,
      "C": 36,
      "D": 37,
      "E": 38,
      "F": 39,
      "G": 40,
      "H": 41,
      "I": 42,
      "J": 43,
      "K": 44,
      "L": 45,
      "M": 46,
      "N": 47,
      "O": 48,
      "P": 49,
      "Q": 50,
      "R": 51,
      "S": 52,
      "T": 53,
      "U": 54,
      "V": 55,
      "W": 56,
      "X": 57,
      "Y": 58,
      "Z": 59,
      "[": 60,
      "\\": 61,
      "]": 62,
      "^": 63,
      "_": 64,
      "`": 65,
      "a": 66,
      "b": 67,
      "c": 68,
      "d": 69,
      "e": 70,
      "f": 71,
      "g": 72,
      "h": 73,
      "i": 74,
      "j": 75,
      "k": 76,
      "l": 77,
      "m": 78,
      "n": 79,
      "o": 80,
      "p": 81,
      "q": 82,
      "r": 83,
      "s": 84,
      "t": 85,
      "u": 86,
      "v": 87,
      "w": 88,
      "x": 89,
      "y": 90,
      "z": 91,
      "{": 92,
      "|": 93,
      "}": 94,
      "~": 95,
      "¡": 96,
      "¢": 97,
      "£": 98,
      "¤": 99,
      "¥": 100,
      "¦": 101,
      "§": 102,
      "¨": 103,
      "©": 104,
      "ª": 105,
      "«": 106,
      "¬": 107,
      "®": 108,
      "¯": 109,
      "°": 110,
      "±": 111,
      "²": 112,
      "³": 113,
      "´": 114,
      "µ": 115,
      "¶": 116,
      "·": 117,
      "¸": 118,
      "¹": 119,
      "º": 120,
      "»": 121,
      "¼": 122,
      "½": 123,
      "¾": 124,
      "¿": 125,
      "Â": 126,
      "Ã": 127,
      "Ä": 128,
      "Å": 129,
      "Ì": 130,
      "Î": 131,
      "Ï": 132,
      "á": 133,
      "â": 134,
      "ï": 135,
      "ð": 136,
      "ĉ": 137,
      "Ċ": 138,
      "Ġ": 139,
      "Ģ": 140,
      "ģ": 141,
      "Ĥ": 142,
      "ĥ": 143,
      "Ħ": 144,
      "ħ": 145,
      "Ĩ": 146,
      "ĩ": 147,
      "Ī": 148,
      "ī": 149,
      "Ĭ": 150,
      "ĭ": 151,
      "Į": 152,
      "į": 153,
      "İ": 154,
      "ı": 155,
      "Ĳ": 156,
      "ĳ": 157,
      "Ĵ": 158,
      "ĵ": 159,
      "Ķ": 160,
      "ķ": 161,
      "ĸ": 162,
      "Ĺ": 163,
      "ĺ": 164,
      "Ļ": 165,
      "ļ": 166,
      "Ľ": 167,
      "ľ": 168,
      "Ŀ": 169,
      "ŀ": 170,
      "Ł": 171,
      "ł": 172,
      "Ń": 173,
      "ĠĠ": 174,
      "ĠĠĠĠ": 175,
      "ĠĠĠ": 176,
      "ĊĠĠĠĠ": 177,
      "on": 178,
      "at": 179,
      "in": 180,
      "re": 181,
      "ĊĠĠĠĠĠĠĠĠ": 182,
      "st": 183,
      "ĊĠĠĠĠĠĠĠ": 184,
      "er": 185,
      "==": 186,
      "or": 187,
      "ĊĠĠĠ": 188,
      "en": 189,
      "Ġ\"": 190,
      "--": 191,
      "al": 192,
      "ion": 193,
      "se": 194,
      "ĊĠĠĠĠĠĠĠĠĠĠĠ": 195,
      "an": 196,
      "le": 197,
      "ct": 198,
      "Ġf": 199,
      "it": 200,
      "Ġp": 201,
      "Ġc": 202,
      "Ġ=": 203,
      "ĊĠĠĠĠĠĠĠĠĠĠĠĠ": 204,
      "de": 205,
      "ar": 206,
      "====": 207,
      "if": 208,
      "\",": 209,
      "ro": 210,
      "\"\"": 211,
      "ce": 212,
      "Ġt": 213,
      "----": 214,
      "Ġre": 215,
      "me": 216,
      "ent": 217,
      "ation": 218,
      "mp": 219,
      "he": 220,
      "int": 221,
      "as": 222,
      "ate": 223,
      "\":": 224,
      "ur": 225,
      "lf": 226,
      "ic": 227,
      "self": 228,
      "ut": 229,
      "ra": 230,
      "is": 231,
      "ĊĠĠĠĠĠĠĠĠĠĠĠĠĠĠĠ": 232,
      "ol": 233,
      "ing": 234,
      "Ġs": 235,
      "Ġ{": 236,
      "id": 237,
      "es": 238,
      "un": 239,
      "\")": 240,
      "ed": 241,
      "Ġe": 242,
      "la": 243,
      "lo": 244,
      "ul": 245,
      "Ġin": 246,
      "str": 247,
      "co": 248,
      "ot": 249,
      "========": 250,
      "Ġ#": 251,
      "ck": 252,
      "Ġself": 253,
      "()": 254,
      "ction": 255,
      "--------": 256,
      "Ġif": 257,
      "ge": 258,
      "urn": 259,
      "ile": 260,
      "Ġa": 261,
      "(\"": 262,
      "Ġd": 263,
      "ort": 264,
      "turn": 265,
      "Ġpr": 266,
      "ĊĠĠĠĠĠĠĠĠĠĠĠĠĠĠĠĠ": 267,
      "of": 268,
      "ma": 269,
      "Ġ\"\"\"": 270,
      "ist": 271,
      "Ġprint": 272,
      "Ġb": 273,
      "ĠF": 274,
      "Ġn": 275,
      "ĠT": 276,
      "ver": 277,
      "ĠC": 278,
      "ad": 279,
      "ĠP": 280,
      "Ġde": 281,
      "ss": 282,
      "ath": 283,
      "Ġreturn": 284,
      "Ġfor": 285,
      "ĊĊĠĠĠ": 286,
      "ult": 287,
      "il": 288,
      "Ġ-": 289,
      "us": 290,
      "te": 291,
      "ue": 292,
      "',": 293,
      "heck": 294,
      "res": 295,
      "Ġ[": 296,
      "pt": 297,
      "Ġcon": 298,
      "ve": 299,
      "and": 300,
      "Ġ(": 301,
      "ame": 302,
      "ĠD": 303,
      "Ġ)": 304,
      "pe": 305,
      "ity": 306,
      "ĠS": 307,
      "imp": 308,
      "Ġm": 309,
      "ĠA": 310,
      "ĊĊĠĠĠĠĠĠĠ": 311,
      "Ġ'": 312,
      "im": 313,
      "Ġw": 314,
      "=\"": 315,
      "\"\"\"": 316,
      "ata": 317,
      "ime": 318,
      "ment": 319,
      "ig": 320,
      "con": 321,
      "\"]": 322,
      "ch": 323,
      "cl": 324,
      "),": 325,
      "ĊĠĠĠĠĠĠĠĠĠĠĠĠĠĠĠĠĠĠĠ": 326,
      "roof": 327,
      "vi": 328,
      "Ġ1": 329,
      "ON": 330,
      "pp": 331,
      "val": 332,
      "ass": 333,
      "Ġo": 334,
      "ant": 335,
      "em": 336,
      "path": 337,
      "import": 338,
      "di": 339,
      "Ġr": 340,
      "um": 341,
      "th": 342,
      "ect": 343,
      "main": 344,
      "Ġex": 345,
      "Ġco": 346,
      "TI": 347,
      "Ġstr": 348,
      "lay": 349,
      "ter": 350,
      "================": 351,
      "rom": 352,
      "file": 353,
      "end": 354,
      "Ġl": 355,
      "Ġ->": 356,
      "----------------": 357,
      "ex": 358,
      "has": 359,
      "Ġdef": 360,
      "IN": 361,
      "Ġst": 362,
      "get": 363,
      "layer": 364,
      "Ġres": 365,
      "all": 366,
      "time": 367,
      "ab": 368,
      "iz": 369,
      "ĠE": 370,
      "__": 371,
      "ĊĊ": 372,
      "raction": 373,
      "[\"": 374,
      "est": 375,
      "rue": 376,
      "Ġis": 377,
      "omain": 378,
      "ith": 379,
      "cess": 380,
      "up": 381,
      "ject": 382,
      "ĠL": 383,
      "ory": 384,
      "ies": 385,
      "ure": 386,
      "ph": 387,
      "qu": 388,
      "ode": 389,
      "Ġ0": 390,
      "ty": 391,
      "ac": 392,
      "Ġnot": 393,
      "Ġâ": 394,
      "Ġto": 395,
      "ĠR": 396,
      "ance": 397,
      "Ġimport": 398,
      "log": 399,
      "']": 400,
      "ations": 401,
      "00": 402,
      "po": 403,
      "ical": 404,
      "ari": 405,
      "one": 406,
      "bject": 407,
      "AL": 408,
      "ĊĠĠĠĠĠĠĠĠĠĠĠĠĠĠĠĠĠĠĠĠ": 409,
      "ren": 410,
      "per": 411,
      "}\")": 412,
      "ĠN": 413,
      "vari": 414,
      "om": 415,
      "Ġfile": 416,
      "name": 417,
      "ard": 418,
      "from": 419,
      "ption": 420,
      "ults": 421,
      "ive": 422,
      "viol": 423,
      "ses": 424,
      "hash": 425,
      "ence": 426,
      "Ġcheck": 427,
      "age": 428,
      "port": 429,
      "mple": 430,
      "):": 431,
      "Ġthe": 432,
      "TE": 433,
      "ror": 434,
      "ine": 435,
      "ĠI": 436,
      "ri": 437,
      "OR": 438,
      "und": 439,
      "ool": 440,
      "Ġ}": 441,
      "app": 442,
      "ict": 443,
      "Ġand": 444,
      "variant": 445,
      "put": 446,
      "ĠFal": 447,
      "pro": 448,
      "ĊĠĠĠĠĊĠĠĠ": 449,
      "Ġel": 450,
      "ĠM": 451,
      "ys": 452,
      "def": 453,
      "ism": 454,
      "Ġwith": 455,
      "class": 456,
      "Object": 457,
      "data": 458,
      "ase": 459,
      "stra": 460,
      "ule": 461,
      "ĠProof": 462,
      "TION": 463,
      "RE": 464,
      "atus": 465,
      "yst": 466,
      "Ġpro": 467,
      "ystem": 468,
      "orm": 469,
      "uc": 470,
      "Ġg": 471,
      ".\"\"\"": 472,
      "ĠProofObject": 473,
      "li": 474,
      "ry": 475,
      "('": 476,
      "og": 477,
      "ow": 478,
      "straint": 479,
      "check": 480,
      "LA": 481,
      "ens": 482,
      "act": 483,
      "unt": 484,
      "ific": 485,
      "Ġas": 486,
      "Ġint": 487,
      "valid": 488,
      "ER": 489,
      "od": 490,
      "otal": 491,
      "art": 492,
      "ĶĢ": 493,
      "son": 494,
      "Ġ+": 495,
      "ĠFraction": 496,
      "ĠO": 497,
      "adj": 498,
      "el": 499,
      "Ġ*": 500,
      "rem": 501,
      "append": 502,
      "âĶĢ": 503,
      "acent": 504,
      "orph": 505,
      "ail": 506,
      "tr": 507,
      "adjacent": 508,
      "Ġ2": 509,
      "Ġof": 510,
      "orphism": 511,
      "}\",": 512,
      "ary": 513,
      "EN": 514,
      "red": 515,
      "ener": 516,
      "âĶĢâĶĢ": 517,
      "Ġh": 518,
      "Ġelse": 519,
      "ated": 520,
      "uccess": 521,
      "],": 522,
      "ound": 523,
      "old": 524,
      "Ġme": 525,
      "Ġ==": 526,
      "laim": 527,
      "sif": 528,
      "json": 529,
      "ĠFalse": 530,
      "ĠTrue": 531,
      "Ġan": 532,
      "xt": 533,
      "]:": 534,
      "pa": 535,
      "ĠDomain": 536,
      "AN": 537,
      "ification": 538,
      "Ġdata": 539,
      "Ġ['": 540,
      "able": 541,
      "sc": 542,
      "tern": 543,
      "utput": 544,
      "IC": 545,
      "set": 546,
      "ĊĠĠĠĠĠĠĠĠĠĠĠĠĠĠĠĠĠĠĠĠĠĠĠ": 547,
      "ST": 548,
      "et": 549,
      "uple": 550,
      "ud": 551,
      "ĠG": 552,
      "ĠNone": 553,
      "sed": 554,
      "ility": 555,
      "type": 556,
      "Morphism": 557,
      "core": 558,
      "error": 559,
      "count": 560,
      "idence": 561,
      "ize": 562,
      "low": 563,
      "ĠDomainMorphism": 564,
      "']),": 565,
      "odel": 566,
      "rent": 567,
      "iv": 568,
      "ger": 569,
      "ĠV": 570,
      "arg": 571,
      "={": 572,
      "sifies": 573,
      "ly": 574,
      ").": 575,
      "ub": 576,
      "py": 577,
      "inal": 578,
      "Ġor": 579,
      "ĠRe": 580,
      "ises": 581,
      "Ġviol": 582,
      "\"],": 583,
      "ĊĊĠĠĠĠĠĠĠĠĠĠĠ": 584,
      "Ġ>": 585,
      "ial": 586,
      "Ġcont": 587,
      "Ġproof": 588,
      "Ġ/": 589,
      "IL": 590,
      "ĠList": 591,
      "Ġth": 592,
      "usion": 593,
      "Ġlog": 594,
      "ution": 595,
      "St": 596,
      "text": 597,
      "ec": 598,
      "our": 599,
      "ĠDict": 600,
      "RA": 601,
      "sit": 602,
      "attern": 603,
      "Ġresults": 604,
      "cted": 605,
      "Ġ<": 606,
      "..": 607,
      "================================": 608,
      "Ġrule": 609,
      "ep": 610,
      "clusion": 611,
      "qui": 612,
      "--------------------------------": 613,
      "remises": 614,
      "ser": 615,
      "ĠB": 616,
      "ib": 617,
      "comp": 618,
      "Ġcomp": 619,
      "ord": 620,
      "Ġlen": 621,
      "Ġen": 622,
      "ĠTuple": 623,
      "dir": 624,
      "ess": 625,
      "ir": 626,
      "ics": 627,
      "Ġtest": 628,
      "ust": 629,
      "fe": 630,
      "ke": 631,
      "AR": 632,
      "Ġch": 633,
      "Ġ_": 634,
      "ator": 635,
      "ĠâĢ": 636,
      "._": 637,
      "Ġpremises": 638,
      "amp": 639,
      "to": 640,
      "ĠEx": 641,
      "True": 642,
      "max": 643,
      "mb": 644,
      "Ġsuccess": 645,
      "mm": 646,
      "ĊĠĠĠĠĠĠĠĠĊĠĠĠĠĠĠĠ": 647,
      "ifi": 648,
      "same": 649,
      "Ġse": 650,
      "Ġver": 651,
      "ap": 652,
      "ork": 653,
      "Ġexce": 654,
      "Ġbool": 655,
      "test": 656,
      "SS": 657,
      "ED": 658,
      "status": 659,
      "ding": 660,
      "atetime": 661,
      "igh": 662,
      "Ġall": 663,
      "rain": 664,
      "['": 665,
      "Ġconclusion": 666,
      "ack": 667,
      "state": 668,
      "ĠAn": 669,
      "variants": 670,
      "ype": 671,
      "uct": 672,
      "ans": 673,
      "results": 674,
      "ag": 675,
      "():": 676,
      "Ġfal": 677,
      "eg": 678,
      "Ġresult": 679,
      "ify": 680,
      "))": 681,
      "=[": 682,
      "vidence": 683,
      "vent": 684,
      "ff": 685,
      "cy": 686,
      "ip": 687,
      "ign": 688,
      "root": 689,
      "ĠIn": 690,
      "Ġ3": 691,
      "Ġreport": 692,
      "ample": 693,
      "rit": 694,
      "ain": 695,
      "min": 696,
      "hold": 697,
      "ateg": 698,
      "ĠU": 699,
      "olog": 700,
      "Ġ[]": 701,
      "iss": 702,
      "udit": 703,
      "result": 704,
      "for": 705,
      "Ġby": 706,
      "par": 707,
      "sh": 708,
      "da": 709,
      "files": 710,
      "fig": 711,
      "ĠĠĠĠĠĠĠ": 712,
      "mat": 713,
      "stamp": 714,
      "now": 715,
      "ĠH": 716,
      "init": 717,
      "score": 718,
      "total": 719,
      "fo": 720,
      "ew": 721,
      "PA": 722,
      "OM": 723,
      "Ġbe": 724,
      "In": 725,
      "Ġfrom": 726,
      "ING": 727,
      "ability": 728,
      "value": 729,
      "form": 730,
      "len": 731,
      "Ġtime": 732,
      "scri": 733,
      "rist": 734,
      "CE": 735,
      "RO": 736,
      "pon": 737,
      "ĠAny": 738,
      "Ġ__": 739,
      "Ġ},": 740,
      "Ġaut": 741,
      "IT": 742,
      "ext": 743,
      "ource": 744,
      "Ġhash": 745,
      "Ġpar": 746,
      "straints": 747,
      "ĠâĢĶ": 748,
      "LE": 749,
      "andard": 750,
      "Ġ],": 751,
      "lement": 752,
      "over": 753,
      "item": 754,
      "urrent": 755,
      "am": 756,
      "Ġsystem": 757,
      "âĶĢâĶĢâĶĢâĶĢ": 758,
      "ified": 759,
      "ert": 760,
      "Ġ(\"": 761,
      "Ġexcept": 762,
      "(\"\\": 763,
      "Ġ4": 764,
      "rror": 765,
      "ers": 766,
      "ight": 767,
      "ptional": 768,
      "rect": 769,
      "ĠPath": 770,
      "ĠSt": 771,
      "}\"": 772,
      "ysis": 773,
      "Ġvalid": 774,
      "anif": 775,
      "alysis": 776,
      "Ġhe": 777,
      "Ġdatetime": 778,
      "line": 779,
      "25": 780,
      "Ġv": 781,
      "Ġfalsifies": 782,
      "anifest": 783,
      "imit": 784,
      "Ġtry": 785,
      "Ġ[\"": 786,
      "60": 787,
      "ĠCon": 788,
      "Ġstate": 789,
      "Con": 790,
      "Ġpath": 791,
      "vers": 792,
      "lab": 793,
      "num": 794,
      "que": 795,
      "Ġfiles": 796,
      "io": 797,
      "date": 798,
      "Ġtr": 799,
      "report": 800,
      "OL": 801,
      "TH": 802,
      "ĠOptional": 803,
      "du": 804,
      "Ġon": 805,
      "VI": 806,
      "turns": 807,
      "ists": 808,
      "not": 809,
      "out": 810,
      "action": 811,
      "posit": 812,
      "RI": 813,
      "cont": 814,
      "DE": 815,
      "ĠW": 816,
      "oc": 817,
      "vel": 818,
      "ATION": 819,
      "code": 820,
      "pl": 821,
      "LAW": 822,
      "load": 823,
      "Ġtotal": 824,
      "che": 825,
      "ĠCheck": 826,
      "loat": 827,
      "size": 828,
      "args": 829,
      "SE": 830,
      "ategory": 831,
      "ument": 832,
      "Ġdi": 833,
      "wa": 834,
      "ix": 835,
      "Ġrequi": 836,
      "Ġoutput": 837,
      "ative": 838,
      "ual": 839,
      "umm": 840,
      "enerate": 841,
      "ĠCo": 842,
      "eld": 843,
      "ded": 844,
      "Ġdomain": 845,
      "key": 846,
      "Ġclaim": 847,
      "add": 848,
      "reate": 849,
      "bool": 850,
      "output": 851,
      "ield": 852,
      "ception": 853,
      "Ġviolation": 854,
      "race": 855,
      "ization": 856,
      "Ġle": 857,
      "iled": 858,
      "arget": 859,
      "pen": 860,
      "ault": 861,
      "Error": 862,
      "assed": 863,
      "FA": 864,
      "ions": 865,
      "ines": 866,
      "Ġ{}": 867,
      "peration": 868,
      "Ġcontent": 869,
      "met": 870,
      "ummary": 871,
      "model": 872,
      "yp": 873,
      "ailed": 874,
      "Ġjson": 875,
      "unk": 876,
      "raining": 877,
      "ute": 878,
      "uth": 879,
      "bo": 880,
      "256": 881,
      "rate": 882,
      "ved": 883,
      "unction": 884,
      "thon": 885,
      "yn": 886,
      "Ġla": 887,
      "reshold": 888,
      "Ġcan": 889,
      "ll": 890,
      "adata": 891,
      "scription": 892,
      "CH": 893,
      "comm": 894,
      "Ġal": 895,
      "ency": 896,
      "ning": 897,
      "\"\\": 898,
      "ponse": 899,
      "info": 900,
      "Ġ),": 901,
      "pec": 902,
      "...": 903,
      "Re": 904,
      "onent": 905,
      "ssage": 906,
      "domain": 907,
      "Ġsh": 908,
      "ration": 909,
      "Fraction": 910,
      "xi": 911,
      "violations": 912,
      "ues": 913,
      "Ġauto": 914,
      "ident": 915,
      "xiom": 916,
      "Ġ5": 917,
      "ĠReturns": 918,
      "tected": 919,
      "Ġpattern": 920,
      "lass": 921,
      "stance": 922,
      "Ġ]": 923,
      "Ġfail": 924,
      "Ġmax": 925,
      "pr": 926,
      "Ġerror": 927,
      "ai": 928,
      "onical": 929,
      "by": 930,
      "ore": 931,
      "Ġper": 932,
      "lib": 933,
      "().": 934,
      "Ġviolations": 935,
      "stat": 936,
      "afe": 937,
      "cord": 938,
      "pattern": 939,
      "01": 940,
      "atch": 941,
      "âľ": 942,
      "gth": 943,
      "ological": 944,
      "ĊĠĠĠĠĠĠĠĠĠĠĠĠĠĠĠĠĠĠĠĠĠĠĠĠĠĠĠ": 945,
      "mpt": 946,
      "Ġhas": 947,
      "ures": 948,
      "alth": 949,
      "quest": 950,
      "timestamp": 951,
      "work": 952,
      "hase": 953,
      "ssion": 954,
      "ken": 955,
      "oundary": 956,
      "loc": 957,
      "Ġlogger": 958,
      "fail": 959,
      "(),": 960,
      "SI": 961,
      "LATION": 962,
      "(\"=\"": 963,
      "ave": 964,
      "reg": 965,
      "exists": 966,
      "rame": 967,
      "entry": 968,
      "ctor": 969,
      "cond": 970,
      "system": 971,
      "dataclass": 972,
      "Ġra": 973,
      "Ġmust": 974,
      "ces": 975,
      "invariants": 976,
      "VE": 977,
      "Ġfloat": 978,
      "implement": 979,
      "ĠException": 980,
      "read": 981,
      "ree": 982,
      "ĠFalsifies": 983,
      "Ġmodel": 984,
      "with": 985,
      "ENT": 986,
      "no": 987,
      "ua": 988,
      ")}": 989,
      "ĠThe": 990,
      "lic": 991,
      "Ġname": 992,
      "ind": 993,
      "Type": 994,
      "trics": 995,
      "config": 996,
      "uil": 997,
      "cre": 998,
      "ang": 999,
      "ES": 1000,
      "Ġ+=": 1001,
      "ise": 1002,
      "back": 1003,
      "mbda": 1004,
      "Ġun": 1005,
      "cul": 1006,
      "success": 1007,
      "claim": 1008,
      "proof": 1009,
      "reser": 1010,
      "OG": 1011,
      "Ġat": 1012,
      "ĠEn": 1013,
      "can": 1014,
      "ber": 1015,
      "run": 1016,
      "force": 1017,
      "ĠCh": 1018,
      "os": 1019,
      "ormat": 1020,
      "ython": 1021,
      "ATE": 1022,
      "Ġ8": 1023,
      "Ġrun": 1024,
      "Ġstatus": 1025,
      "Ġtyp": 1026,
      "Ġ7": 1027,
      "HA": 1028,
      "mplete": 1029,
      "rite": 1030,
      "issing": 1031,
      "esh": 1032,
      "atio": 1033,
      "lower": 1034,
      "pre": 1035,
      "eshua": 1036,
      "items": 1037,
      "tes": 1038,
      "aly": 1039,
      "oul": 1040,
      "Ġ10": 1041,
      "liance": 1042,
      "Ġopen": 1043,
      "lock": 1044,
      "termin": 1045,
      "ĠĠĠĠĠĠĠĠ": 1046,
      "ug": 1047,
      "pend": 1048,
      "ature": 1049,
      "olution": 1050,
      "ucture": 1051,
      "thod": 1052,
      "mon": 1053,
      "alcul": 1054,
      "istr": 1055,
      "sha": 1056,
      "EC": 1057,
      "IG": 1058,
      "TS": 1059,
      "the": 1060,
      "Ġinvariants": 1061,
      ")),": 1062,
      "ĠY": 1063,
      "MA": 1064,
      "start": 1065,
      "ĠDe": 1066,
      "ms": 1067,
      "implementation": 1068,
      "ition": 1069,
      "PRO": 1070,
      "Ġfield": 1071,
      "gine": 1072,
      "}:": 1073,
      "Ġexec": 1074,
      "lace": 1075,
      "andl": 1076,
      "ifact": 1077,
      "cor": 1078,
      "step": 1079,
      "ange": 1080,
      "TA": 1081,
      "dict": 1082,
      "use": 1083,
      "Ġinvariant": 1084,
      "FAIL": 1085,
      "Ġany": 1086,
      "001": 1087,
      "PASS": 1088,
      "content": 1089,
      "Ġpo": 1090,
      "\"),": 1091,
      "evidence": 1092,
      "\"{": 1093,
      "dent": 1094,
      "ðŁ": 1095,
      "ĠAI": 1096,
      "itial": 1097,
      "Ġcurrent": 1098,
      "Ġelif": 1099,
      "pace": 1100,
      "fact": 1101,
      "ca": 1102,
      "cle": 1103,
      "Ġcor": 1104,
      "None": 1105,
      "---": 1106,
      "ness": 1107,
      "upp": 1108,
      "overn": 1109,
      "Ex": 1110,
      "ments": 1111,
      "Ġevidence": 1112,
      "UM": 1113,
      "Ġline": 1114,
      "flow": 1115,
      "Ġ100": 1116,
      "Ġ>=": 1117,
      "cent": 1118,
      "rg": 1119,
      "ok": 1120,
      "emp": 1121,
      "ous": 1122,
      "OLATION": 1123,
      "utf": 1124,
      "ized": 1125,
      "**": 1126,
      "Ġare": 1127,
      "ful": 1128,
      "Ġ--------------------------------": 1129,
      "mplet": 1130,
      "artifact": 1131,
      "Ġconstraint": 1132,
      "constraints": 1133,
      "ob": 1134,
      "ta": 1135,
      "tection": 1136,
      "Ġk": 1137,
      "ĠJ": 1138,
      "amples": 1139,
      ":\")": 1140,
      "Ġmin": 1141,
      "Ġ================================": 1142,
      "isof": 1143,
      "isoformat": 1144,
      "ates": 1145,
      "ITY": 1146,
      "DA": 1147,
      "[:": 1148,
      "istic": 1149,
      "coding": 1150,
      "Ġverification": 1151,
      "Ġ----------------------------------------------------------------": 1152,
      "ĠStandard": 1153,
      "ensor": 1154,
      "Co": 1155,
      "ĨĴ": 1156,
      "__(": 1157,
      "Ġsub": 1158,
      "gra": 1159,
      "alyz": 1160,
      "ĠPro": 1161,
      "audit": 1162,
      "US": 1163,
      "Ġma": 1164,
      "},": 1165,
      "verage": 1166,
      "ology": 1167,
      "VIOLATION": 1168,
      "der": 1169,
      "Claim": 1170,
      "ural": 1171,
      "arning": 1172,
      "dd": 1173,
      "Ġsys": 1174,
      "UN": 1175,
      "Ġchecks": 1176,
      "Ġ.": 1177,
      "TIVE": 1178,
      "')": 1179,
      "Ġanalysis": 1180,
      "Check": 1181,
      "nel": 1182,
      "ctions": 1183,
      "ak": 1184,
      "ide": 1185,
      "ask": 1186,
      "Ġno": 1187,
      "Ġ\\": 1188,
      "arch": 1189,
      "ract": 1190,
      "eness": 1191,
      "OD": 1192,
      "kle": 1193,
      "Ġtext": 1194,
      "ay": 1195,
      "pository": 1196,
      "fidence": 1197,
      "erkle": 1198,
      "Ġcomm": 1199,
      "ible": 1200,
      "gent": 1201,
      "sist": 1202,
      "rence": 1203,
      "ĠVal": 1204,
      "Ġos": 1205,
      "CT": 1206,
      "Ġac": 1207,
      "pected": 1208,
      "âĶĢâĶĢâĶĢâĶĢâĶĢâĶĢâĶĢâĶĢ": 1209,
      "ameter": 1210,
      "ps": 1211,
      "ority": 1212,
      "Ġpre": 1213,
      "ĊĠ": 1214,
      "rectory": 1215,
      "============": 1216,
      ")\",": 1217,
      "MENT": 1218,
      "Pro": 1219,
      "process": 1220,
      "10": 1221,
      "ian": 1222,
      "atis": 1223,
      "instance": 1224,
      "Res": 1225,
      "Ġtyping": 1226,
      "Ġ================================================================": 1227,
      "lable": 1228,
      "...\")": 1229,
      "ark": 1230,
      "parent": 1231,
      "atisf": 1232,
      "col": 1233,
      "manifest": 1234,
      "level": 1235,
      "Ġwork": 1236,
      "orem": 1237,
      "istry": 1238,
      "uration": 1239,
      "Ġrequired": 1240,
      "ĠTest": 1241,
      "Ġ{\"": 1242,
      "hes": 1243,
      "emon": 1244,
      "xioms": 1245,
      "ery": 1246,
      "Ġtype": 1247,
      "Ġ------------------------------------------------------------------------": 1248,
      "erify": 1249,
      "rength": 1250,
      "VER": 1251,
      "ality": 1252,
      "ĠâĨĴ": 1253,
      "Ġfound": 1254,
      "Ġconstraints": 1255,
      "violation": 1256,
      "Ġset": 1257,
      "])": 1258,
      "overnance": 1259,
      "Ġact": 1260,
      "Ġlambda": 1261,
      "ffect": 1262,
      "LO": 1263,
      "SON": 1264,
      "afety": 1265,
      "Ġcode": 1266,
      "ĠYeshua": 1267,
      "``": 1268,
      "Ġfailed": 1269,
      "Ġhel": 1270,
      "source": 1271,
      "ally": 1272,
      "version": 1273,
      "summary": 1274,
      "point": 1275,
      "Ġtrans": 1276,
      "verity": 1277,
      "lines": 1278,
      "ould": 1279,
      "CI": 1280,
      "Ġus": 1281,
      "DI": 1282,
      "Ġqu": 1283,
      "Status": 1284,
      "node": 1285,
      "hemat": 1286,
      "Ġmat": 1287,
      "Ġapp": 1288,
      "Ġparser": 1289,
      "ach": 1290,
      "ĠÎ": 1291,
      "Ġwh": 1292,
      "Ġmet": 1293,
      "Ġthat": 1294,
      "ĊĊĠĠĠĠĠĠĠĠĠĠĠĠĠĠĠ": 1295,
      "ĠSystem": 1296,
      "write": 1297,
      "Ġkey": 1298,
      "Ġreg": 1299,
      "arden": 1300,
      "its": 1301,
      "itor": 1302,
      "De": 1303,
      "ging": 1304,
      "inc": 1305,
      "loss": 1306,
      "md": 1307,
      "tail": 1308,
      "default": 1309,
      "Ch": 1310,
      "ension": 1311,
      "description": 1312,
      "Ġpython": 1313,
      "ision": 1314,
      "Ġdetected": 1315,
      "mod": 1316,
      "message": 1317,
      "passed": 1318,
      "Ġevent": 1319,
      "=(": 1320,
      "OT": 1321,
      "Ġ============================================================================": 1322,
      "Ġaudit": 1323,
      "ME": 1324,
      "Ġlist": 1325,
      "fal": 1326,
      "Ġencoding": 1327,
      "very": 1328,
      "Ġ---------------------------------------------------------------------------": 1329,
      "ven": 1330,
      "ink": 1331,
      "event": 1332,
      "category": 1333,
      "number": 1334,
      "Ġ|": 1335,
      "Test": 1336,
      "ron": 1337,
      "Ġinter": 1338,
      "terministic": 1339,
      "roz": 1340,
      "ora": 1341,
      "requi": 1342,
      "oth": 1343,
      "exec": 1344,
      "rozen": 1345,
      "unc": 1346,
      "OMP": 1347,
      "URE": 1348,
      "ratio": 1349,
      "ipe": 1350,
      "constraint": 1351,
      "alculate": 1352,
      "Ġ70": 1353,
      "ync": 1354,
      "omic": 1355,
      "dump": 1356,
      "reserv": 1357,
      ":.": 1358,
      "onal": 1359,
      "Ġraise": 1360,
      "current": 1361,
      "Ġi": 1362,
      "Ġprocess": 1363,
      "cur": 1364,
      "gest": 1365,
      "threshold": 1366,
      "izer": 1367,
      "target": 1368,
      "view": 1369,
      "vice": 1370,
      "Ġsource": 1371,
      "Ġca": 1372,
      "jo": 1373,
      "repo": 1374,
      "Ġnew": 1375,
      "Ġmanifest": 1376,
      "dex": 1377,
      "icle": 1378,
      "list": 1379,
      "âľħ": 1380,
      "mory": 1381,
      "ader": 1382,
      "Fal": 1383,
      "own": 1384,
      "ameters": 1385,
      "led": 1386,
      "State": 1387,
      "SA": 1388,
      "Ġmetadata": 1389,
      "Ġx": 1390,
      "Ġoperation": 1391,
      "ocument": 1392,
      "egr": 1393,
      "ĿĮ": 1394,
      "limit": 1395,
      "Ġy": 1396,
      "UR": 1397,
      "ĠComp": 1398,
      "ĠâĢ¢": 1399,
      "Ġ60": 1400,
      "Ġpassed": 1401,
      "ipeline": 1402,
      "Ġexist": 1403,
      "loy": 1404,
      "we": 1405,
      "op": 1406,
      "CON": 1407,
      "Ġclass": 1408,
      "Ġmod": 1409,
      "Ġcomponent": 1410,
      "TY": 1411,
      "base": 1412,
      "gy": 1413,
      "Ġass": 1414,
      "ason": 1415,
      "Ġspec": 1416,
      "())": 1417,
      "datetime": 1418,
      "Ġaction": 1419,
      "Ġover": 1420,
      "ĠLo": 1421,
      "Ġdict": 1422,
      "Ġcanonical": 1423,
      "EM": 1424,
      "argument": 1425,
      "':": 1426,
      "STE": 1427,
      "ference": 1428,
      "Ġfunction": 1429,
      "Ġhelp": 1430,
      "ied": 1431,
      "istory": 1432,
      "rel": 1433,
      "Ġget": 1434,
      "ross": 1435,
      "fa": 1436,
      "Ġob": 1437,
      "Ġ!": 1438,
      "Ġentry": 1439,
      "Ġnode": 1440,
      "values": 1441,
      "duct": 1442,
      "stru": 1443,
      "Ġtarget": 1444,
      "Ġ<=": 1445,
      "=[\"": 1446,
      "ĠArg": 1447,
      "Ġresponse": 1448,
      "Ġtimestamp": 1449,
      "Ġro": 1450,
      "christ": 1451,
      "older": 1452,
      "Ġ!=": 1453,
      "ĠArgs": 1454,
      "ID": 1455,
      ")\")": 1456,
      "his": 1457,
      "AD": 1458,
      "analysis": 1459,
      "ne": 1460,
      "Ġar": 1461,
      "ĠCreate": 1462,
      "ĠâĪ": 1463,
      "invariant": 1464,
      "asses": 1465,
      "gr": 1466,
      "Ġroot": 1467,
      "Ġargs": 1468,
      "MIN": 1469,
      "ICAL": 1470,
      "phase": 1471,
      "02": 1472,
      "print": 1473,
      "av": 1474,
      "verification": 1475,
      "Ġsum": 1476,
      "Ġscore": 1477,
      "metadata": 1478,
      "Ġtra": 1479,
      "Ġstep": 1480,
      "health": 1481,
      "nown": 1482,
      "ogonal": 1483,
      "ibility": 1484,
      "Ġhashlib": 1485,
      "ulation": 1486,
      "uff": 1487,
      "Ġcontext": 1488,
      "\"].": 1489,
      "ominal": 1490,
      "ormal": 1491,
      "LI": 1492,
      "sign": 1493,
      "pper": 1494,
      "Ġdis": 1495,
      "Ġbase": 1496,
      "conds": 1497,
      "Ġok": 1498,
      "Ġvalidation": 1499,
      "pth": 1500,
      "Ġgener": 1501,
      "ast": 1502,
      "ml": 1503,
      "inter": 1504,
      "Ġsc": 1505,
      "ash": 1506,
      "ardinal": 1507,
      "place": 1508,
      "hed": 1509,
      "AIN": 1510,
      "record": 1511,
      "resent": 1512,
      "egration": 1513,
      "En": 1514,
      "dataset": 1515,
      "andling": 1516,
      "ering": 1517,
      "depend": 1518,
      "Ġcount": 1519,
      "por": 1520,
      "imal": 1521,
      "ĠChrist": 1522,
      "sition": 1523,
      "ft": 1524,
      "sub": 1525,
      "The": 1526,
      "Ġverify": 1527,
      "Ġisinstance": 1528,
      "TED": 1529,
      "ritical": 1530,
      "af": 1531,
      ".*": 1532,
      "Ġstat": 1533,
      "AT": 1534,
      "bytes": 1535,
      "FOR": 1536,
      "Ġ@": 1537,
      "ĠK": 1538,
      "cap": 1539,
      "']}\")": 1540,
      "method": 1541,
      "idate": 1542,
      "Ġtool": 1543,
      "Ġ\".": 1544,
      "ours": 1545,
      "PU": 1546,
      "Ġlimit": 1547,
      "Ġlines": 1548,
      "forcement": 1549,
      "PO": 1550,
      "Ġinput": 1551,
      "typ": 1552,
      "Ġmessage": 1553,
      "False": 1554,
      "stit": 1555,
      "mo": 1556,
      "uman": 1557,
      "parse": 1558,
      "lob": 1559,
      "sification": 1560,
      "Ġthreshold": 1561,
      "AI": 1562,
      "CTION": 1563,
      "ĠUn": 1564,
      "Ġtraining": 1565,
      "metrics": 1566,
      "Ġâľ": 1567,
      "Ġstart": 1568,
      "PI": 1569,
      ")}\")": 1570,
      "POR": 1571,
      "Ġback": 1572,
      "Ġj": 1573,
      "IF": 1574,
      "patterns": 1575,
      "liant": 1576,
      "Ġasync": 1577,
      "An": 1578,
      "TIC": 1579,
      "Ġannot": 1580,
      "ANCE": 1581,
      "Ġnon": 1582,
      "Ġconfig": 1583,
      "bt": 1584,
      "Ġthis": 1585,
      "Ġenum": 1586,
      "ĠJSON": 1587,
      "Ġfraction": 1588,
      "verify": 1589,
      "Strength": 1590,
      "Ġtrace": 1591,
      "]]": 1592,
      "Ġrecord": 1593,
      "chunk": 1594,
      "Ġ80": 1595,
      "uture": 1596,
      "trans": 1597,
      "Ġdirectory": 1598,
      "000": 1599,
      "word": 1600,
      "iginal": 1601,
      "space": 1602,
      "ĠIN": 1603,
      "hicle": 1604,
      "ĠĠĠĠĠĠĠĠĠĠĠ": 1605,
      "ress": 1606,
      "istics": 1607,
      "Ġcol": 1608,
      "temp": 1609,
      "imum": 1610,
      "Ġwe": 1611,
      "NG": 1612,
      "_{": 1613,
      "boundary": 1614,
      "frozen": 1615,
      "ill": 1616,
      "hematical": 1617,
      "Ġindent": 1618,
      "System": 1619,
      "pass": 1620,
      "entr": 1621,
      "Result": 1622,
      "Ġsummary": 1623,
      "Ġda": 1624,
      "ho": 1625,
      "##": 1626,
      "tool": 1627,
      "update": 1628,
      "Ġdescription": 1629,
      "session": 1630,
      "strip": 1631,
      "ĠOr": 1632,
      "ient": 1633,
      "operation": 1634,
      "ardinalStrength": 1635,
      "Dict": 1636,
      "ull": 1637,
      "tra": 1638,
      "Ġ6": 1639,
      "ĠRE": 1640,
      "ORA": 1641,
      "Ġpatterns": 1642,
      "isk": 1643,
      "input": 1644,
      "Ġannotations": 1645,
      "Ġcap": 1646,
      "component": 1647,
      "Ġmissing": 1648,
      "âĿĮ": 1649,
      "join": 1650,
      "UL": 1651,
      "Ġaxioms": 1652,
      "irst": 1653,
      "last": 1654,
      "valu": 1655,
      "future": 1656,
      "Run": 1657,
      "ches": 1658,
      "porate": 1659,
      "}\"],": 1660,
      "erm": 1661,
      "response": 1662,
      "iction": 1663,
      "ensity": 1664,
      "Ġcontin": 1665,
      "RU": 1666,
      "Ġtemp": 1667,
      "consist": 1668,
      "verified": 1669,
      "Ġoper": 1670,
      "script": 1671,
      "Ġit": 1672,
      "tails": 1673,
      "Ġimplementation": 1674,
      "Ġrequest": 1675,
      "iple": 1676,
      "OMAIN": 1677,
      "olic": 1678,
      "ĠFile": 1679,
      "tests": 1680,
      "entries": 1681,
      "hex": 1682,
      "atisfied": 1683,
      "utes": 1684,
      "12": 1685,
      "bin": 1686,
      "AG": 1687,
      "Ġvalue": 1688,
      "reat": 1689,
      "classes": 1690,
      "OLOG": 1691,
      "play": 1692,
      "other": 1693,
      "pri": 1694,
      "serv": 1695,
      "steps": 1696,
      "IM": 1697,
      "PER": 1698,
      "STRA": 1699,
      "plan": 1700,
      "gineering": 1701,
      "Ġident": 1702,
      "DIC": 1703,
      "gener": 1704,
      "Se": 1705,
      "Ġ\"__": 1706,
      "sent": 1707,
      "ailable": 1708,
      "stitution": 1709,
      "Ġframe": 1710,
      "Ġ\"=\"": 1711,
      "seconds": 1712,
      "Ġdo": 1713,
      "ĠTr": 1714,
      "ĠNo": 1715,
      "ner": 1716,
      "Ġ--": 1717,
      "Ġav": 1718,
      "ware": 1719,
      "spe": 1720,
      "rc": 1721,
      "be": 1722,
      "tri": 1723,
      "ript": 1724,
      "radi": 1725,
      "generate": 1726,
      "Ġu": 1727,
      "Ġve": 1728,
      "iol": 1729,
      "Ġz": 1730,
      "Ġ\"--": 1731,
      "exit": 1732,
      "Ġerrors": 1733,
      "logger": 1734,
      "ories": 1735,
      "Ġdefault": 1736,
      "Ġwithout": 1737,
      "gro": 1738,
      "history": 1739,
      "complet": 1740,
      "Ġexecution": 1741,
      "ice": 1742,
      "raph": 1743,
      "Ġfractions": 1744,
      "HE": 1745,
      "ĠLog": 1746,
      "iveness": 1747,
      "24": 1748,
      "</": 1749,
      "CY": 1750,
      "uild": 1751,
      "'s": 1752,
      "confidence": 1753,
      "ICATION": 1754,
      "QU": 1755,
      "cept": 1756,
      "Comp": 1757,
      "cision": 1758,
      "utable": 1759,
      "ĠPhase": 1760,
      "down": 1761,
      "dis": 1762,
      "alyze": 1763,
      "fix": 1764,
      "env": 1765,
      "andards": 1766,
      "Ġassert": 1767,
      "Ġsort": 1768,
      "required": 1769,
      "Ġdataset": 1770,
      "Ġartifact": 1771,
      "Ġchunk": 1772,
      "ift": 1773,
      "itoring": 1774,
      "restr": 1775,
      "ĊĠĠĠĠĠĠĠĠĠĠĠĠĠĠĠĠĠĠĠĠĠĠĠĠĠĠĠĠĠĠĠ": 1776,
      "egrity": 1777,
      "store": 1778,
      "edding": 1779,
      "Ġbut": 1780,
      "ward": 1781,
      "ense": 1782,
      "pperian": 1783,
      "Ġmain": 1784,
      "ities": 1785,
      "DOMAIN": 1786,
      "mode": 1787,
      "604": 1788,
      "pping": 1789,
      "Ġfailures": 1790,
      "pand": 1791,
      "istance": 1792,
      "ĠAgent": 1793,
      "lean": 1794,
      "TER": 1795,
      "Invariant": 1796,
      "ARD": 1797,
      "Ġne": 1798,
      "energy": 1799,
      "agno": 1800,
      "ld": 1801,
      "factory": 1802,
      "part": 1803,
      "ref": 1804,
      "STEM": 1805,
      "CA": 1806,
      "viron": 1807,
      "validation": 1808,
      "ĠĠĊĠĠĠĠĠĠĠ": 1809,
      "Ġpass": 1810,
      "\"][\"": 1811,
      "__\":": 1812,
      "Val": 1813,
      "tric": 1814,
      "loyment": 1815,
      "clo": 1816,
      "Ġturn": 1817,
      "ĠSet": 1818,
      "ia": 1819,
      "swith": 1820,
      "pu": 1821,
      "\"):": 1822,
      "Ġmon": 1823,
      "ifier": 1824,
      "ATIVE": 1825,
      "PT": 1826,
      "ars": 1827,
      "ueError": 1828,
      "Ġinitial": 1829,
      "Ġstub": 1830,
      "uilding": 1831,
      "Constraint": 1832,
      "effect": 1833,
      "mark": 1834,
      "annel": 1835,
      "IS": 1836,
      "NING": 1837,
      "pos": 1838,
      "ĠVerify": 1839,
      ".\",": 1840,
      "Ġ**": 1841,
      "case": 1842,
      "Ġmetrics": 1843,
      "Ġrel": 1844,
      "ude": 1845,
      "fore": 1846,
      "ht": 1847,
      "trace": 1848,
      "Ġcomplete": 1849,
      "ROR": 1850,
      "perty": 1851,
      "train": 1852,
      "Ġdataclasses": 1853,
      "olicy": 1854,
      "Ġpl": 1855,
      "ined": 1856,
      "Ġcreate": 1857,
      "compliant": 1858,
      "COR": 1859,
      "lora": 1860,
      "ĠLa": 1861,
      "wait": 1862,
      "BAN": 1863,
      "frame": 1864,
      "ĠRun": 1865,
      "Ġlogging": 1866,
      "angu": 1867,
      "Ġag": 1868,
      "ODO": 1869,
      "EST": 1870,
      "Ġdataclass": 1871,
      "Log": 1872,
      "ax": 1873,
      "fra": 1874,
      "plit": 1875,
      "ĠValueError": 1876,
      "sess": 1877,
      "Ġbytes": 1878,
      "spec": 1879,
      "Ġfix": 1880,
      "Ġcre": 1881,
      "context": 1882,
      "Ġstructure": 1883,
      "failure": 1884,
      "initial": 1885,
      "monstr": 1886,
      "agnost": 1887,
      "hours": 1888,
      "Ġform": 1889,
      "sifi": 1890,
      "='": 1891,
      "function": 1892,
      "({": 1893,
      "ek": 1894,
      "mit": 1895,
      "digest": 1896,
      "token": 1897,
      "Ġhealth": 1898,
      "logic": 1899,
      "active": 1900,
      "miss": 1901,
      "Ġrequire": 1902,
      "orch": 1903,
      "Ġrate": 1904,
      "Ġab": 1905,
      "verse": 1906,
      "OVER": 1907,
      "ched": 1908,
      "tep": 1909,
      "ules": 1910,
      "Ġresolution": 1911,
      "egative": 1912,
      "ating": 1913,
      "compliance": 1914,
      "Ġpathlib": 1915,
      "imension": 1916,
      "LORA": 1917,
      "itness": 1918,
      "uted": 1919,
      "index": 1920,
      "ĠID": 1921,
      "errors": 1922,
      "Ġsign": 1923,
      "Ġmatch": 1924,
      "Ġparameters": 1925,
      "ARI": 1926,
      "Ġsession": 1927,
      "rt": 1928,
      "Ġsize": 1929,
      "lag": 1930,
      "struction": 1931,
      "aut": 1932,
      "memory": 1933,
      "Ġrange": 1934,
      "keys": 1935,
      "inciple": 1936,
      "man": 1937,
      "unded": 1938,
      "Ġcompliance": 1939,
      "registry": 1940,
      "complete": 1941,
      "Ġobject": 1942,
      "IGH": 1943,
      "Ġphase": 1944,
      "Ġawait": 1945,
      "ĠTODO": 1946,
      "Ġformat": 1947,
      "ational": 1948,
      "cessed": 1949,
      "ML": 1950,
      "fl": 1951,
      "âķ": 1952,
      "Ġwarden": 1953,
      "ĠMA": 1954,
      "prob": 1955,
      "GH": 1956,
      "present": 1957,
      "Lo": 1958,
      "YSTEM": 1959,
      "asure": 1960,
      "dumps": 1961,
      "rid": 1962,
      "Ġlo": 1963,
      "})": 1964,
      "Ġnum": 1965,
      "CRI": 1966,
      "TRA": 1967,
      "ĠÂ": 1968,
      "Ġiss": 1969,
      "Qu": 1970,
      "vironment": 1971,
      "EX": 1972,
      "BIL": 1973,
      "den": 1974,
      "CED": 1975,
      "No": 1976,
      "ĠSHA": 1977,
      "quence": 1978,
      "object": 1979,
      "Ġload": 1980,
      "are": 1981,
      "depth": 1982,
      "Ġexpected": 1983,
      "ĠExpand": 1984,
      "OF": 1985,
      "ced": 1986,
      "medi": 1987,
      "formation": 1988,
      "label": 1989,
      "non": 1990,
      "chain": 1991,
      "Ġfailure": 1992,
      "ero": 1993,
      "commit": 1994,
      "âķĲ": 1995,
      "anguage": 1996,
      "structure": 1997,
      "RIC": 1998,
      "Xiv": 1999,
      "eds": 2000,
      "iolation": 2001,
      "itle": 2002,
      "hexdigest": 2003,
      "16": 2004,
      "days": 2005,
      "ray": 2006,
      "ran": 2007,
      "tect": 2008,
      "positive": 2009,
      "new": 2010,
      "ernel": 2011,
      "ĠAll": 2012,
      "ĠThis": 2013,
      "âķĲâķĲ": 2014,
      "atural": 2015,
      "Path": 2016,
      "thogonal": 2017,
      "pha": 2018,
      "cal": 2019,
      "ox": 2020,
      "ages": 2021,
      "Ġfunc": 2022,
      "med": 2023,
      "coverage": 2024,
      "Ġext": 2025,
      "ternal": 2026,
      "PE": 2027,
      "INV": 2028,
      "Ġcontinue": 2029,
      "pi": 2030,
      "\"]:": 2031,
      "COMP": 2032,
      "RY": 2033,
      "utc": 2034,
      "Ġ[],": 2035,
      "orld": 2036,
      "Ġout": 2037,
      "agent": 2038,
      "div": 2039,
      "RIGH": 2040,
      "OS": 2041,
      "ĠGenerate": 2042,
      "domains": 2043,
      "Category": 2044,
      "Ġmode": 2045,
      "ivity": 2046,
      "training": 2047,
      "Ġother": 2048,
      "Ġad": 2049,
      "TEST": 2050,
      "versation": 2051,
      "commend": 2052,
      "encode": 2053,
      "REDIC": 2054,
      "box": 2055,
      "unter": 2056,
      "forc": 2057,
      "OC": 2058,
      "fraction": 2059,
      "Ġactual": 2060,
      "Christ": 2061,
      "laint": 2062,
      "PLA": 2063,
      "ights": 2064,
      "RIGHTS": 2065,
      "sys": 2066,
      "split": 2067,
      "Ġuse": 2068,
      "request": 2069,
      "enc": 2070,
      "holder": 2071,
      "FE": 2072,
      "Ġser": 2073,
      "respon": 2074,
      "ored": 2075,
      "Ġexists": 2076,
      "inite": 2077,
      "Ġrepository": 2078,
      "Ġnominal": 2079,
      "Ġ40": 2080,
      "REDICATIVE": 2081,
      "ename": 2082,
      "ailure": 2083,
      "MAX": 2084,
      "ĠAdd": 2085,
      "IV": 2086,
      "Ġchain": 2087,
      ".\")": 2088,
      "bound": 2089,
      "sure": 2090,
      "ano": 2091,
      "rol": 2092,
      "Ġdeterministic": 2093,
      "andom": 2094,
      "Ġgovernance": 2095,
      "#!": 2096,
      "found": 2097,
      "oper": 2098,
      "All": 2099,
      "Enum": 2100,
      "Un": 2101,
      "Ġtests": 2102,
      "call": 2103,
      "warning": 2104,
      "#!/": 2105,
      "tent": 2106,
      "erg": 2107,
      "lem": 2108,
      "usal": 2109,
      "chat": 2110,
      "¸ı": 2111,
      "ï¸ı": 2112,
      "alization": 2113,
      "usr": 2114,
      "Ġonly": 2115,
      "âĶĢâĶĢâĶĢâĶĢâĶĢâĶĢâĶĢâĶĢâĶĢâĶĢâĶĢâĶĢâĶĢâĶĢâĶĢâĶĢ": 2116,
      "ivation": 2117,
      "Ġ9": 2118,
      "']}": 2119,
      "100": 2120,
      "Ġread": 2121,
      "ublic": 2122,
      "ĠEngineering": 2123,
      "Model": 2124,
      "itialize": 2125,
      ".\"": 2126,
      "late": 2127,
      "pdate": 2128,
      "backup": 2129,
      "ĠarXiv": 2130,
      "Ġfil": 2131,
      "âľĵ": 2132,
      "ric": 2133,
      "ĠType": 2134,
      "scan": 2135,
      "ycle": 2136,
      "Ġph": 2137,
      "plic": 2138,
      "Ġbound": 2139,
      "].": 2140,
      "ļł": 2141,
      "off": 2142,
      ":**": 2143,
      "ick": 2144,
      "Ġast": 2145,
      "ERROR": 2146,
      "SH": 2147,
      "Ġlevel": 2148,
      "ayer": 2149,
      "wer": 2150,
      "iter": 2151,
      "mpty": 2152,
      "uctural": 2153,
      "SCH": 2154,
      "UT": 2155,
      "cycle": 2156,
      "Ġworkflow": 2157,
      "ODE": 2158,
      "Verify": 2159,
      "task": 2160,
      "Ġreturns": 2161,
      "zone": 2162,
      "ĠCON": 2163,
      "term": 2164,
      "ILD": 2165,
      "startswith": 2166,
      "Ġpoint": 2167,
      "UND": 2168,
      "Ġscript": 2169,
      "ors": 2170,
      "Ġbackup": 2171,
      "math": 2172,
      "Ġpa": 2173,
      "counts": 2174,
      "Me": 2175,
      "cas": 2176,
      "tector": 2177,
      "query": 2178,
      "Ġgenerate": 2179,
      "formance": 2180,
      "types": 2181,
      "inding": 2182,
      "udget": 2183,
      "Le": 2184,
      "OOL": 2185,
      "Ġimp": 2186,
      "canonical": 2187,
      "Ġhave": 2188,
      "AND": 2189,
      "venant": 2190,
      "sion": 2191,
      "ators": 2192,
      "restriction": 2193,
      "((": 2194,
      "ĠAt": 2195,
      "mplex": 2196,
      "obj": 2197,
      "]]:": 2198,
      "Ġâī": 2199,
      "ployment": 2200,
      "Ġfe": 2201,
      "50": 2202,
      "Ġ%": 2203,
      "map": 2204,
      "ids": 2205,
      "Ġdemonstr": 2206,
      "pert": 2207,
      "parser": 2208,
      "created": 2209,
      "merkle": 2210,
      "Ġprompt": 2211,
      "PLE": 2212,
      "BLE": 2213,
      "OW": 2214,
      "float": 2215,
      "ome": 2216,
      "attr": 2217,
      "Ġexamples": 2218,
      "Ġcommit": 2219,
      "unctor": 2220,
      "ĠCardinalStrength": 2221,
      "validate": 2222,
      "Ġenumer": 2223,
      "olved": 2224,
      "auth": 2225,
      "cla": 2226,
      "Ġcomplet": 2227,
      "EL": 2228,
      "util": 2229,
      "09": 2230,
      "row": 2231,
      "Ġman": 2232,
      "ĠConstraint": 2233,
      "Ġshould": 2234,
      "stats": 2235,
      "missing": 2236,
      "reason": 2237,
      "PH": 2238,
      "RATION": 2239,
      "Ġverified": 2240,
      "20": 2241,
      "replace": 2242,
      "Ġsafety": 2243,
      "11": 2244,
      "([": 2245,
      "kens": 2246,
      "ĠFor": 2247,
      "ache": 2248,
      "supp": 2249,
      "026": 2250,
      "ĠPA": 2251,
      "checks": 2252,
      "erification": 2253,
      "ĠPar": 2254,
      "imple": 2255,
      "Ġfirst": 2256,
      "pture": 2257,
      "percent": 2258,
      "ARIAN": 2259,
      "ager": 2260,
      "Ġ``": 2261,
      "search": 2262,
      "Ġquery": 2263,
      "Ġcategory": 2264,
      "commendations": 2265,
      "board": 2266,
      "encies": 2267,
      "diction": 2268,
      "als": 2269,
      "Ġcase": 2270,
      "Ġchrist": 2271,
      "Ġtruth": 2272,
      "Phase": 2273,
      "integration": 2274,
      "atform": 2275,
      "Ġ:": 2276,
      "Ġenergy": 2277,
      "Ġcond": 2278,
      "prompt": 2279,
      "andler": 2280,
      "ting": 2281,
      "rection": 2282,
      "lambda": 2283,
      "Ġadd": 2284,
      "Ġboundary": 2285,
      "DEN": 2286,
      "ges": 2287,
      "Ġrepo": 2288,
      "ower": 2289,
      "ĠOrthogonal": 2290,
      "acy": 2291,
      "ugh": 2292,
      "execution": 2293,
      "consistent": 2294,
      "here": 2295,
      "static": 2296,
      "distance": 2297,
      "idth": 2298,
      "ĠGener": 2299,
      "local": 2300,
      "(\"-": 2301,
      "under": 2302,
      "ĠMerkle": 2303,
      "Ġcreated": 2304,
      "ĠÂ§": 2305,
      "giveness": 2306,
      "severity": 2307,
      "Ġtask": 2308,
      "Ġproduct": 2309,
      "ster": 2310,
      "ĠSh": 2311,
      "ibl": 2312,
      "}.": 2313,
      "Ġsorted": 2314,
      "Ġinstance": 2315,
      "strict": 2316,
      "dependent": 2317,
      "Ġdocument": 2318,
      "expected": 2319,
      "Audit": 2320,
      "ci": 2321,
      "section": 2322,
      "Ġusing": 2323,
      "Ġend": 2324,
      "Ġup": 2325,
      "ĠSe": 2326,
      "sche": 2327,
      "length": 2328,
      "MED": 2329,
      "ater": 2330,
      "Ġ'.": 2331,
      "lect": 2332,
      "condition": 2333,
      "BILITY": 2334,
      "rus": 2335,
      "Ġitem": 2336,
      "ĊĠĠĠĠĠĠĠĠĠĠĠĠĊĠĠĠĠĠĠĠĠĠĠĠ": 2337,
      "Ġfinal": 2338,
      "Ġmethod": 2339,
      "command": 2340,
      "so": 2341,
      "ARY": 2342,
      "reserved": 2343,
      "lta": 2344,
      "ody": 2345,
      "ĠFA": 2346,
      "Ġclaims": 2347,
      "rusader": 2348,
      "sco": 2349,
      "ĠAct": 2350,
      "ðŁĵ": 2351,
      "icity": 2352,
      "Ġwithin": 2353,
      "duction": 2354,
      "fil": 2355,
      "igma": 2356,
      "THE": 2357,
      "duc": 2358,
      "ont": 2359,
      "Ġpreserv": 2360,
      "mplement": 2361,
      "tran": 2362,
      "Ġcommand": 2363,
      "Get": 2364,
      "ell": 2365,
      "ĠÎ£": 2366,
      "GE": 2367,
      "Ġsrc": 2368,
      "ĠCOMP": 2369,
      "Ġtoken": 2370,
      "python": 2371,
      "chema": 2372,
      "Ġoperations": 2373,
      "plicit": 2374,
      "Ġfact": 2375,
      "hashes": 2376,
      "Ġdoes": 2377,
      "Ġconfidence": 2378,
      "ffic": 2379,
      "Ġplan": 2380,
      "Par": 2381,
      "Ġsample": 2382,
      "Ġcycle": 2383,
      "Ġdif": 2384,
      "ĠTraining": 2385,
      "REG": 2386,
      "ives": 2387,
      "Ġsupp": 2388,
      "\"])": 2389,
      "Ġseverity": 2390,
      "reak": 2391,
      "Ġhandling": 2392,
      "DU": 2393,
      "ĠExec": 2394,
      "sessment": 2395,
      "(__": 2396,
      "LOG": 2397,
      "true": 2398,
      "only": 2399,
      "url": 2400,
      "Ġdetection": 2401,
      "OVERN": 2402,
      "bra": 2403,
      "Ġratio": 2404,
      "ograph": 2405,
      "ĠUpdate": 2406,
      "LY": 2407,
      "FORM": 2408,
      "TICAL": 2409,
      "ingle": 2410,
      "Ġissues": 2411,
      "respond": 2412,
      "Ġtrain": 2413,
      "Ġ({": 2414,
      "ĠEX": 2415,
      "norm": 2416,
      "onom": 2417,
      "details": 2418,
      "ĠInvariant": 2419,
      "unknown": 2420,
      "RAN": 2421,
      "duration": 2422,
      "words": 2423,
      "critical": 2424,
      "ination": 2425,
      "issues": 2426,
      "field": 2427,
      "allable": 2428,
      "Ġ12": 2429,
      "jsonl": 2430,
      "TING": 2431,
      "Ġfolder": 2432,
      "ru": 2433,
      "orth": 2434,
      "LIC": 2435,
      "Ġcl": 2436,
      "meta": 2437,
      "Violation": 2438,
      "Ġbet": 2439,
      "abil": 2440,
      "ĠMAX": 2441,
      "uar": 2442,
      "Ġfull": 2443,
      "Ġtorch": 2444,
      "direct": 2445,
      "rypt": 2446,
      "Ġenforcement": 2447,
      "ROOT": 2448,
      "failures": 2449,
      "ļłï¸ı": 2450,
      "File": 2451,
      "ier": 2452,
      "atory": 2453,
      "stant": 2454,
      "oton": 2455,
      "actions": 2456,
      ")\"": 2457,
      "ĠCalculate": 2458,
      "Ġfork": 2459,
      "Ġprob": 2460,
      "Set": 2461,
      "Ġtheorem": 2462,
      "Ġintegration": 2463,
      "servation": 2464,
      "perties": 2465,
      "lap": 2466,
      "ptim": 2467,
      "irs": 2468,
      "Ġauth": 2469,
      "come": 2470,
      "ĠCan": 2471,
      "CP": 2472,
      "Ġwas": 2473,
      "exc": 2474,
      "document": 2475,
      "Ġtran": 2476,
      "loads": 2477,
      "indow": 2478,
      "txt": 2479,
      "ĊĠĠĠĠĠĠĠĠĠĠĠĠĠĠĠĠĠĠĠĠĠĠĠĠĠĠĠĠ": 2480,
      "ĠPo": 2481,
      "Ġsuccessful": 2482,
      "Ġid": 2483,
      "Ġtree": 2484,
      "post": 2485,
      "inition": 2486,
      "Ġenumerate": 2487,
      ":/": 2488,
      "oration": 2489,
      "examples": 2490,
      "Ġmemory": 2491,
      "Ġwhen": 2492,
      "Ġtrack": 2493,
      "mk": 2494,
      "Ġder": 2495,
      "Ġcomponents": 2496,
      "19": 2497,
      "Ġvi": 2498,
      "ĠRes": 2499,
      "Ġcannot": 2500,
      "ĠLoRA": 2501,
      "Ġâľħ": 2502,
      "Layer": 2503,
      "argparse": 2504,
      "cs": 2505,
      "density": 2506,
      "Ġ&": 2507,
      "channel": 2508,
      "PROCED": 2509,
      "Tuple": 2510,
      "Ġ\"\\": 2511,
      "exist": 2512,
      "ĠTrans": 2513,
      "FO": 2514,
      "OUS": 2515,
      "Ġdepend": 2516,
      "ĠIDE": 2517,
      "project": 2518,
      "ground": 2519,
      "Te": 2520,
      "ĠStep": 2521,
      "ĠFAIL": 2522,
      "respondence": 2523,
      "sal": 2524,
      "END": 2525,
      "workflow": 2526,
      "Ġavailable": 2527,
      "PROCEDURE": 2528,
      "']['": 2529,
      "Gener": 2530,
      "Generate": 2531,
      "Ġsensor": 2532,
      "ĠDE": 2533,
      "\"[": 2534,
      "ey": 2535,
      "device": 2536,
      "rough": 2537,
      "ĠCom": 2538,
      "ĠSave": 2539,
      "logs": 2540,
      "ensive": 2541,
      "LETE": 2542,
      "Config": 2543,
      "folder": 2544,
      "detected": 2545,
      "Ġdaemon": 2546,
      "mkdir": 2547,
      "rected": 2548,
      "Ġ{'": 2549,
      "poch": 2550,
      "anges": 2551,
      "preserv": 2552,
      "Ġsa": 2553,
      "ister": 2554,
      "paper": 2555,
      "ams": 2556,
      "lowed": 2557,
      "Ġrequires": 2558,
      "mbedding": 2559,
      "theorem": 2560,
      "Ġcorporate": 2561,
      "gram": 2562,
      "warden": 2563,
      "Ġnp": 2564,
      "Ġvehicle": 2565,
      "lis": 2566,
      "oe": 2567,
      "ted": 2568,
      "Ġent": 2569,
      "leg": 2570,
      "Ġscan": 2571,
      "\"))": 2572,
      "Ġagent": 2573,
      "Ġregistry": 2574,
      "ha": 2575,
      "vious": 2576,
      "ession": 2577,
      "ferent": 2578,
      "Ġpart": 2579,
      "80": 2580,
      "verg": 2581,
      "ĠPASS": 2582,
      "uring": 2583,
      "ings": 2584,
      "ĠPython": 2585,
      "ild": 2586,
      "OLOGICAL": 2587,
      "schema": 2588,
      "PS": 2589,
      "gebra": 2590,
      "lication": 2591,
      "db": 2592,
      "Ġ\"\",": 2593,
      "Ġpipeline": 2594,
      "dient": 2595,
      "truth": 2596,
      ").\"\"\"": 2597,
      "failed": 2598,
      "kit": 2599,
      "INAL": 2600,
      "Ġ{})": 2601,
      "Level": 2602,
      "ered": 2603,
      "Ġreason": 2604,
      "variance": 2605,
      "overall": 2606,
      "ĠSYSTEM": 2607,
      "acility": 2608,
      "Ġvalidate": 2609,
      "CU": 2610,
      "Ġoriginal": 2611,
      "ignment": 2612,
      "Ġuser": 2613,
      "je": 2614,
      "}/": 2615,
      "antum": 2616,
      "INE": 2617,
      "produc": 2618,
      "mission": 2619,
      "(\"-\"": 2620,
      "AM": 2621,
      "argin": 2622,
      "ĠInte": 2623,
      "suff": 2624,
      "itions": 2625,
      "Ġsatisfied": 2626,
      "vere": 2627,
      "ived": 2628,
      "}\\": 2629,
      "Ġmodule": 2630,
      "sp": 2631,
      "holds": 2632,
      "ynam": 2633,
      "Ġsim": 2634,
      "tocol": 2635,
      "Tr": 2636,
      "UC": 2637,
      "alyzer": 2638,
      "ographic": 2639,
      "fer": 2640,
      "sensor": 2641,
      "ĊĠĠ": 2642,
      "lied": 2643,
      "final": 2644,
      "Ġchat": 2645,
      "Ġunder": 2646,
      "Ġpri": 2647,
      "ĠAN": 2648,
      "Ġcontain": 2649,
      "Ġone": 2650,
      "arm": 2651,
      "ĠApp": 2652,
      "face": 2653,
      "TERN": 2654,
      "safety": 2655,
      "ale": 2656,
      "clude": 2657,
      "rift": 2658,
      "detection": 2659,
      "covery": 2660,
      "uda": 2661,
      "used": 2662,
      "oral": 2663,
      "CESS": 2664,
      "falsification": 2665,
      "\"âľħ": 2666,
      "BOR": 2667,
      "iblical": 2668,
      "]}": 2669,
      "ween": 2670,
      "valuation": 2671,
      "iod": 2672,
      "Ġpack": 2673,
      "com": 2674,
      "imated": 2675,
      "Ġ20": 2676,
      "PORATE": 2677,
      "gment": 2678,
      "rule": 2679,
      "ume": 2680,
      "ĠĠĊĠĠĠĠĠĠĠĠĠĠĠ": 2681,
      "ĠCallable": 2682,
      "Ġuni": 2683,
      "ataset": 2684,
      "Ġexceeds": 2685,
      "Ġspecific": 2686,
      "erature": 2687,
      "Ġempty": 2688,
      "strib": 2689,
      "processed": 2690,
      "Ġbefore": 2691,
      "sifiable": 2692,
      "âĪ": 2693,
      "nominal": 2694,
      "ĊĊĠĠĠĠĠĠĠĠĠĠĠĠĠĠĠĠĠĠĠ": 2695,
      "roll": 2696,
      "location": 2697,
      "aker": 2698,
      "30": 2699,
      "right": 2700,
      "ĠCor": 2701,
      "vention": 2702,
      "SAFE": 2703,
      "SCHOOL": 2704,
      "git": 2705,
      "ĊĠĠĠĠĠ": 2706,
      "Ġcall": 2707,
      "andidate": 2708,
      "Ġ2604": 2709,
      "vergence": 2710,
      "Ġargparse": 2711,
      "atent": 2712,
      "uris": 2713,
      "tokens": 2714,
      "satisfied": 2715,
      "Ġgeneration": 2716,
      "glob": 2717,
      "Ġlayer": 2718,
      "Ġloss": 2719,
      "Ġ):": 2720,
      "Ġhuman": 2721,
      "ĠBoundary": 2722,
      "ĠInitialize": 2723,
      "laceholder": 2724,
      "flict": 2725,
      "UILD": 2726,
      "Ġentries": 2727,
      "Ġconsist": 2728,
      "igation": 2729,
      "way": 2730,
      "SIS": 2731,
      "RON": 2732,
      "negative": 2733,
      "istem": 2734,
      "Ġintegrity": 2735,
      "ĠExt": 2736,
      "UD": 2737,
      "uit": 2738,
      "ĠProcess": 2739,
      "indings": 2740,
      ".',": 2741,
      "OK": 2742,
      "Ġtuple": 2743,
      "ĠVER": 2744,
      "Ġbetween": 2745,
      "safe": 2746,
      "Ġ\"\"": 2747,
      "ulated": 2748,
      "mplexity": 2749,
      "risk": 2750,
      "ALTH": 2751,
      "ĠImp": 2752,
      "match": 2753,
      "Ġsha": 2754,
      "OLOGY": 2755,
      ")}\",": 2756,
      "AME": 2757,
      "axioms": 2758,
      "Ġ...": 2759,
      "ĠQu": 2760,
      "return": 2761,
      "ank": 2762,
      "ardware": 2763,
      "ĠOn": 2764,
      "components": 2765,
      "orthogonal": 2766,
      "XIV": 2767,
      "ĠDi": 2768,
      "impl": 2769,
      "pose": 2770,
      "SIF": 2771,
      "artifacts": 2772,
      "block": 2773,
      "nect": 2774,
      "save": 2775,
      "urt": 2776,
      "uni": 2777,
      "ALSIF": 2778,
      "ainst": 2779,
      "Ġidentity": 2780,
      "Ġrequirements": 2781,
      "\"âĿĮ": 2782,
      "olve": 2783,
      "Ġaccess": 2784,
      "ĠZ": 2785,
      "Ġed": 2786,
      "inu": 2787,
      "reach": 2788,
      "debt": 2789,
      "ĠError": 2790,
      "Ġlaw": 2791,
      "Ġappro": 2792,
      "trib": 2793,
      "Reg": 2794,
      "Ġcritical": 2795,
      "ĠFailure": 2796,
      "ersion": 2797,
      "ULATION": 2798,
      "oss": 2799,
      "ssages": 2800,
      "IFICATION": 2801,
      "15": 2802,
      "cert": 2803,
      "vest": 2804,
      "ARXIV": 2805,
      "Ġsubprocess": 2806,
      "events": 2807,
      "DENCE": 2808,
      "This": 2809,
      "ropy": 2810,
      "Ġ2026": 2811,
      "Ġexception": 2812,
      "aml": 2813,
      "statistics": 2814,
      "go": 2815,
      "imate": 2816,
      "ĠIf": 2817,
      "completed": 2818,
      "effective": 2819,
      "\"}": 2820,
      "string": 2821,
      "ĠGet": 2822,
      "Ġsame": 2823,
      "vert": 2824,
      "Ġdebt": 2825,
      "ĠLoad": 2826,
      "ĠCH": 2827,
      "pped": 2828,
      "Ġgro": 2829,
      "SO": 2830,
      "ĠEnum": 2831,
      "quival": 2832,
      "Ġfails": 2833,
      "://": 2834,
      "tempt": 2835,
      "Ġstatistics": 2836,
      "func": 2837,
      "uid": 2838,
      "Ġreal": 2839,
      "parents": 2840,
      "width": 2841,
      "idates": 2842,
      "emb": 2843,
      "Ġbased": 2844,
      "ISS": 2845,
      "uard": 2846,
      "ĠĠĠĠĠ": 2847,
      "reh": 2848,
      "Ġdetails": 2849,
      "lier": 2850,
      "MINAL": 2851,
      "Ġformal": 2852,
      "osition": 2853,
      "athematical": 2854,
      "integrity": 2855,
      "Ġeach": 2856,
      "Ġcoverage": 2857,
      "staticmethod": 2858,
      "abilities": 2859,
      "AC": 2860,
      "batch": 2861,
      "ĠHash": 2862,
      "Ġhashes": 2863,
      "located": 2864,
      "Str": 2865,
      "fter": 2866,
      "Ġbo": 2867,
      "Ġbreak": 2868,
      "ride": 2869,
      "\">": 2870,
      "GEN": 2871,
      "sample": 2872,
      "âļłï¸ı": 2873,
      "ĠTime": 2874,
      "property": 2875,
      "validator": 2876,
      "ibration": 2877,
      "Auth": 2878,
      "Total": 2879,
      "cident": 2880,
      "ĠAPI": 2881,
      "power": 2882,
      "HEALTH": 2883,
      "INVARIAN": 2884,
      "YER": 2885,
      "gate": 2886,
      "ie": 2887,
      "title": 2888,
      "ther": 2889,
      "Ġstandards": 2890,
      "Ġ50": 2891,
      "GRA": 2892,
      "Ġblock": 2893,
      "ĠAl": 2894,
      "Ġlast": 2895,
      "rehensive": 2896,
      "*.": 2897,
      "px": 2898,
      "sim": 2899,
      "Ġmark": 2900,
      "Ġexc": 2901,
      "allback": 2902,
      "riter": 2903,
      "Ġdays": 2904,
      "known": 2905,
      "pipeline": 2906,
      "conclusion": 2907,
      "try": 2908,
      "ĠÏ": 2909,
      "rest": 2910,
      "Ġmorphism": 2911,
      "Ġexample": 2912,
      "ORI": 2913,
      "ðŁĶ": 2914,
      "delta": 2915,
      "__).": 2916,
      "Ġdomains": 2917,
      "regulation": 2918,
      "ĠValid": 2919,
      "Ġsteps": 2920,
      "high": 2921,
      "ARNING": 2922,
      "format": 2923,
      "ĠCont": 2924,
      "Ġexisting": 2925,
      "requ": 2926,
      "ategy": 2927,
      "Return": 2928,
      "tax": 2929,
      "Ġtransaction": 2930,
      "arge": 2931,
      "ONT": 2932,
      "Ġversion": 2933,
      "Report": 2934,
      "MENTAL": 2935,
      "Output": 2936,
      "ically": 2937,
      "Ġest": 2938,
      "ĠPre": 2939,
      "Ġexit": 2940,
      "HASE": 2941,
      "03": 2942,
      "ASE": 2943,
      "igger": 2944,
      "Ġobj": 2945,
      "cr": 2946,
      "wo": 2947,
      "orical": 2948,
      "VIRON": 2949,
      "upper": 2950,
      "PORT": 2951,
      "44": 2952,
      "dimension": 2953,
      "lue": 2954,
      "RES": 2955,
      "STRIC": 2956,
      "eano": 2957,
      "âĤ": 2958,
      "lements": 2959,
      "agnostic": 2960,
      "TeX": 2961,
      "23": 2962,
      "ye": 2963,
      "arity": 2964,
      "vide": 2965,
      "ias": 2966,
      "msg": 2967,
      "agnostics": 2968,
      "PR": 2969,
      "original": 2970,
      "ĠVerification": 2971,
      "CRIMINAL": 2972,
      "'t": 2973,
      "budget": 2974,
      "ula": 2975,
      "order": 2976,
      "metic": 2977,
      "Ġevents": 2978,
      "CORPORATE": 2979,
      "urisdiction": 2980,
      "200": 2981,
      "vehicle": 2982,
      "ALL": 2983,
      "Ġhigh": 2984,
      "Ġthrough": 2985,
      "Ġsystems": 2986,
      "volution": 2987,
      "Ġspe": 2988,
      "Ġevery": 2989,
      "copy": 2990,
      "dentity": 2991,
      "AS": 2992,
      "Ġspace": 2993,
      "2604": 2994,
      "att": 2995,
      "Ġmatches": 2996,
      "Ġcapability": 2997,
      "Ġmonitoring": 2998,
      "jection": 2999,
      "ech": 3000,
      "omation": 3001,
      "SAFETY": 3002,
      "create": 3003,
      "handling": 3004,
      "product": 3005,
      "sert": 3006,
      "Ġwhile": 3007,
      "wardens": 3008,
      "array": 3009,
      "Ġrandom": 3010,
      "module": 3011,
      "Ġâľĵ": 3012,
      "ĠPopperian": 3013,
      "asic": 3014,
      "ĠAudit": 3015,
      "emonstr": 3016,
      "htt": 3017,
      "istemic": 3018,
      "open": 3019,
      "enance": 3020,
      "ential": 3021,
      "Ġindex": 3022,
      "andidates": 3023,
      "concent": 3024,
      "Ġdirect": 3025,
      "DIR": 3026,
      "Or": 3027,
      "Ġens": 3028,
      "Ġupdate": 3029,
      "seed": 3030,
      "ital": 3031,
      "intenance": 3032,
      "Ġ{}).": 3033,
      "DATA": 3034,
      "Ġturns": 3035,
      "ĠAtomic": 3036,
      "Ġpackage": 3037,
      "TRU": 3038,
      "cuda": 3039,
      "alance": 3040,
      "Ġafter": 3041,
      "parameters": 3042,
      "relative": 3043,
      "GOVERN": 3044,
      "ergy": 3045,
      "idden": 3046,
      "ensit": 3047,
      "Ġagainst": 3048,
      "\"},": 3049,
      "calculate": 3050,
      "derr": 3051,
      "Ġprocessing": 3052,
      "Ġasyncio": 3053,
      "VIRONMENTAL": 3054,
      "eded": 3055,
      "stage": 3056,
      "Ġsaved": 3057,
      "CardinalStrength": 3058,
      "reference": 3059,
      "INT": 3060,
      "INTE": 3061,
      "Ġhold": 3062,
      "Ġfalsification": 3063,
      "identity": 3064,
      "Ġfeature": 3065,
      "II": 3066,
      "IUM": 3067,
      "Proof": 3068,
      "glass": 3069,
      "tree": 3070,
      "extend": 3071,
      "host": 3072,
      "04": 3073,
      "pct": 3074,
      "atures": 3075,
      "Ġconversation": 3076,
      "bounded": 3077,
      "PLAN": 3078,
      "14": 3079,
      "variable": 3080,
      "rix": 3081,
      "find": 3082,
      "lection": 3083,
      "(\"âľħ": 3084,
      "Ġbatch": 3085,
      "Ġ15": 3086,
      "Ġdefinition": 3087,
      "ensions": 3088,
      "={\"": 3089,
      "factor": 3090,
      "available": 3091,
      "Ġjust": 3092,
      "Ġartifacts": 3093,
      "REGULATION": 3094,
      "Main": 3095,
      "filepath": 3096,
      "Ġtimeout": 3097,
      "points": 3098,
      "generated": 3099,
      "BO": 3100,
      "FALSIF": 3101,
      "NOR": 3102,
      "cache": 3103,
      "ose": 3104,
      "Ġsingle": 3105,
      "ĠAut": 3106,
      "Ġlora": 3107,
      "ANT": 3108,
      "embedding": 3109,
      "urpose": 3110,
      "ĠPRO": 3111,
      "logos": 3112,
      "full": 3113,
      "nodes": 3114,
      "Ġmathematical": 3115,
      "consistency": 3116,
      "IST": 3117,
      "utor": 3118,
      "LAYER": 3119,
      "tokenizer": 3120,
      "57": 3121,
      "IA": 3122,
      "Version": 3123,
      "premises": 3124,
      "witness": 3125,
      "Ġrecommendations": 3126,
      "Ġforgiveness": 3127,
      "Ġwhere": 3128,
      "ENS": 3129,
      "ENVIRONMENTAL": 3130,
      "workspace": 3131,
      "CARE": 3132,
      "Ġfixed": 3133,
      "32": 3134,
      "ga": 3135,
      "link": 3136,
      "vance": 3137,
      "incident": 3138,
      "quivalence": 3139,
      "ases": 3140,
      "ire": 3141,
      "kernel": 3142,
      "}%": 3143,
      "Ġnext": 3144,
      "Ġstring": 3145,
      "(?": 3146,
      "Ġht": 3147,
      "Ġ[])": 3148,
      "Ġ{},": 3149,
      "terminism": 3150,
      "monitoring": 3151,
      "apt": 3152,
      "Ġterm": 3153,
      "Ġembedding": 3154,
      "ALID": 3155,
      "sched": 3156,
      "Ġproofs": 3157,
      "Ġ30": 3158,
      "PATH": 3159,
      "radient": 3160,
      "Rec": 3161,
      "governance": 3162,
      "ves": 3163,
      "Ġvalues": 3164,
      "erial": 3165,
      "sequence": 3166,
      "ram": 3167,
      "law": 3168,
      "andle": 3169,
      "dium": 3170,
      "ORY": 3171,
      "Al": 3172,
      "gor": 3173,
      "just": 3174,
      "Ġclo": 3175,
      "Ġmult": 3176,
      "Ġoverall": 3177,
      "ĠPr": 3178,
      "appro": 3179,
      "ategories": 3180,
      "position": 3181,
      "claims": 3182,
      "Mode": 3183,
      "bit": 3184,
      "\").": 3185,
      "assert": 3186,
      "qual": 3187,
      "ĠâĬ": 3188,
      "STAND": 3189,
      "paration": 3190,
      "PROPER": 3191,
      "EMON": 3192,
      "âķĲâķĲâķĲâķĲ": 3193,
      "ryptographic": 3194,
      "ĠImport": 3195,
      "ancy": 3196,
      "VIDENCE": 3197,
      "gorith": 3198,
      "DER": 3199,
      "rug": 3200,
      "tological": 3201,
      "ĠX": 3202,
      "itect": 3203,
      "icense": 3204,
      "struct": 3205,
      "ĠPREDICATIVE": 3206,
      "ĠBuilding": 3207,
      "morphism": 3208,
      "lama": 3209,
      "pay": 3210,
      "ATEG": 3211,
      "Exec": 3212,
      "forcer": 3213,
      "NAME": 3214,
      "ged": 3215,
      "ĠDis": 3216,
      "Ġproject": 3217,
      "Ġ1000": 3218,
      "interval": 3219,
      "PROPERTY": 3220,
      "App": 3221,
      "finite": 3222,
      "ĠTEST": 3223,
      "Ġrisk": 3224,
      "apply": 3225,
      "Ġcapture": 3226,
      "Ġconfiguration": 3227,
      "ĠLaw": 3228,
      "NE": 3229,
      "flag": 3230,
      "Ġ\"-": 3231,
      "Ġduration": 3232,
      "Ġlanguage": 3233,
      "Ġtraceback": 3234,
      "RANS": 3235,
      "requency": 3236,
      "PLANNING": 3237,
      "Ġ$": 3238,
      "utation": 3239,
      "ĠStr": 3240,
      "chor": 3241,
      "api": 3242,
      "Ġused": 3243,
      "BANK": 3244,
      "Th": 3245,
      "ds": 3246,
      "ove": 3247,
      "sk": 3248,
      "example": 3249,
      "ĠRepository": 3250,
      "Ġlogs": 3251,
      "Di": 3252,
      "light": 3253,
      "imm": 3254,
      "STRE": 3255,
      "ynamic": 3256,
      "Create": 3257,
      "For": 3258,
      "fir": 3259,
      "gress": 3260,
      "sol": 3261,
      "repository": 3262,
      "Ġflag": 3263,
      "Ġbuilding": 3264,
      "Ġright": 3265,
      "OMM": 3266,
      "chunks": 3267,
      "chedule": 3268,
      "Man": 3269,
      "dic": 3270,
      "rant": 3271,
      "oler": 3272,
      "Ġeffect": 3273,
      "timezone": 3274,
      "agement": 3275,
      "chestr": 3276,
      "Process": 3277,
      "after": 3278,
      "forcing": 3279,
      "Ġfilename": 3280,
      "nap": 3281,
      "deterministic": 3282,
      "probability": 3283,
      "Ġnumber": 3284,
      "IED": 3285,
      "effic": 3286,
      "range": 3287,
      "Ġcr": 3288,
      "ĠTh": 3289,
      "ssure": 3290,
      "ĠScore": 3291,
      "Ġoperationalization": 3292,
      "lueprint": 3293,
      "CO": 3294,
      "Not": 3295,
      "VIL": 3296,
      "aded": 3297,
      "insert": 3298,
      "Ġref": 3299,
      "ithmetic": 3300,
      "ags": 3301,
      "ĠWork": 3302,
      "âľĹ": 3303,
      "CIVIL": 3304,
      "ĠUnion": 3305,
      "policy": 3306,
      "alert": 3307,
      "Ġschema": 3308,
      "resolution": 3309,
      "formed": 3310,
      "tools": 3311,
      "priority": 3312,
      "LOGOS": 3313,
      "ONTOLOGICAL": 3314,
      "ins": 3315,
      "ression": 3316,
      "ĠMe": 3317,
      "uster": 3318,
      "shot": 3319,
      "models": 3320,
      "ready": 3321,
      "enforcement": 3322,
      "anit": 3323,
      "icient": 3324,
      "antic": 3325,
      "acity": 3326,
      "Ġmeet": 3327,
      "params": 3328,
      "bose": 3329,
      "ited": 3330,
      "asis": 3331,
      "Ġwould": 3332,
      "Ġcomplaint": 3333,
      "Validate": 3334,
      "inciples": 3335,
      "Ġcondition": 3336,
      "PREDICATIVE": 3337,
      "SUM": 3338,
      "cross": 3339,
      "samples": 3340,
      "era": 3341,
      "TECTION": 3342,
      "sitive": 3343,
      "Ġtypes": 3344,
      "html": 3345,
      "utcnow": 3346,
      "scores": 3347,
      "napshot": 3348,
      "IDE": 3349,
      "To": 3350,
      "deployment": 3351,
      "vector": 3352,
      "INING": 3353,
      "TIONAL": 3354,
      "Cap": 3355,
      "Evidence": 3356,
      "alt": 3357,
      "counter": 3358,
      "ĠFOR": 3359,
      "Ġ'{": 3360,
      "Ġatomic": 3361,
      "empty": 3362,
      "grance": 3363,
      "ĠCanonical": 3364,
      "FALSIFICATION": 3365,
      ")}\"": 3366,
      "Failed": 3367,
      "Ġsatisf": 3368,
      "ĠPR": 3369,
      "minutes": 3370,
      "ftime": 3371,
      "ou": 3372,
      "header": 3373,
      "Ġinst": 3374,
      "strftime": 3375,
      "logging": 3376,
      "Ġoff": 3377,
      "abled": 3378,
      "FIN": 3379,
      "ĠĠĊĠĠĠĠĠĠĠĠĠĠĠĠĠĠĠ": 3380,
      "Ġpad": 3381,
      "Ġpower": 3382,
      "utdown": 3383,
      "anti": 3384,
      "ways": 3385,
      "based": 3386,
      "UAL": 3387,
      "\\\\": 3388,
      "oot": 3389,
      "atomic": 3390,
      "()).": 3391,
      "ysical": 3392,
      "pair": 3393,
      "closure": 3394,
      "objects": 3395,
      "UDIT": 3396,
      "13": 3397,
      "201": 3398,
      "FIL": 3399,
      "wal": 3400,
      "redient": 3401,
      "Ġinv": 3402,
      "ott": 3403,
      "ĠTra": 3404,
      "Ġgate": 3405,
      "versal": 3406,
      "otonic": 3407,
      "INVARIANTS": 3408,
      "Ġensure": 3409,
      "HO": 3410,
      "sum": 3411,
      "uction": 3412,
      "Ġdepth": 3413,
      "emory": 3414,
      "directory": 3415,
      "laboration": 3416,
      "NGTH": 3417,
      "Seek": 3418,
      "frastructure": 3419,
      "STRENGTH": 3420,
      "07": 3421,
      "UES": 3422,
      "ef": 3423,
      "Ġsco": 3424,
      "Ġenvironment": 3425,
      "uggest": 3426,
      "olerance": 3427,
      "user": 3428,
      "ĠEvidence": 3429,
      "access": 3430,
      "Ġorder": 3431,
      "Ġfilepath": 3432,
      "epSeek": 3433,
      "ventory": 3434,
      "ĠDef": 3435,
      "Ġexecutable": 3436,
      "Ġrow": 3437,
      "ĠChristological": 3438,
      "JSON": 3439,
      "sic": 3440,
      "ream": 3441,
      "eral": 3442,
      "ante": 3443,
      "Ġreview": 3444,
      "Ġai": 3445,
      "allen": 3446,
      "Ġacross": 3447,
      "hematics": 3448,
      "ench": 3449,
      "FORCE": 3450,
      "ĠLaTeX": 3451,
      "gorithm": 3452,
      "OI": 3453,
      "ten": 3454,
      "unit": 3455,
      "ĠTheological": 3456,
      "execute": 3457,
      "weight": 3458,
      "operator": 3459,
      "17": 3460,
      "SHA": 3461,
      "ost": 3462,
      "odium": 3463,
      "yaml": 3464,
      "ANTI": 3465,
      "crete": 3466,
      "Ġcompleted": 3467,
      "roller": 3468,
      "Domain": 3469,
      "ned": 3470,
      "std": 3471,
      "stderr": 3472,
      "vered": 3473,
      "consent": 3474,
      "Ġnodes": 3475,
      "COMPLI": 3476,
      "concentration": 3477,
      "Col": 3478,
      "mand": 3479,
      "aries": 3480,
      "dapt": 3481,
      "imitive": 3482,
      "Load": 3483,
      "ORIES": 3484,
      "Pr": 3485,
      "normal": 3486,
      "yl": 3487,
      "Ġpublic": 3488,
      "metric": 3489,
      "Ġstandard": 3490,
      "served": 3491,
      "shard": 3492,
      "gration": 3493,
      "human": 3494,
      "Ġits": 3495,
      "Ġso": 3496,
      "ifications": 3497,
      "ĠHe": 3498,
      "ĠStatus": 3499,
      "Ġmapping": 3500,
      "Ġstats": 3501,
      "Valid": 3502,
      "CATEG": 3503,
      "IZ": 3504,
      "orage": 3505,
      "pect": 3506,
      "rences": 3507,
      "Ġactive": 3508,
      "transaction": 3509,
      "45": 3510,
      "âĢ": 3511,
      "\"][": 3512,
      "ĠGPU": 3513,
      "iven": 3514,
      "compute": 3515,
      "without": 3516,
      "termine": 3517,
      "air": 3518,
      "pol": 3519,
      "sigma": 3520,
      "alpha": 3521,
      "analyze": 3522,
      "Ġpresent": 3523,
      "mage": 3524,
      "Ġ25": 3525,
      "Ġseed": 3526,
      "ISM": 3527,
      "stribution": 3528,
      "aemon": 3529,
      "lear": 3530,
      "left": 3531,
      "metry": 3532,
      "uilt": 3533,
      "ARDINAL": 3534,
      "implified": 3535,
      "(?:": 3536,
      "FR": 3537,
      "YS": 3538,
      "Ġcomb": 3539,
      "ĠNot": 3540,
      "platform": 3541,
      "Ġleast": 3542,
      "onomous": 3543,
      "Record": 3544,
      "Calculate": 3545,
      "[-": 3546,
      "ood": 3547,
      "memb": 3548,
      "ypot": 3549,
      "cases": 3550,
      "completeness": 3551,
      "OWN": 3552,
      "none": 3553,
      "engine": 3554,
      "Ġrepresent": 3555,
      "ĠNOT": 3556,
      "grid": 3557,
      "valuate": 3558,
      "TESTS": 3559,
      "Ver": 3560,
      "WE": 3561,
      "src": 3562,
      "world": 3563,
      "Ġcla": 3564,
      "Ġconsent": 3565,
      "API": 3566,
      "Max": 3567,
      "review": 3568,
      "Ġdeployment": 3569,
      "Ġwrite": 3570,
      "popperian": 3571,
      "ĠCOMPLETE": 3572,
      "CARDINAL": 3573,
      "bar": 3574,
      "Ġwrit": 3575,
      "Ġround": 3576,
      "EVIDENCE": 3577,
      "MPLE": 3578,
      "OP": 3579,
      "Operation": 3580,
      "Training": 3581,
      "}'": 3582,
      "any": 3583,
      "head": 3584,
      "paths": 3585,
      "Ġhistory": 3586,
      "ĠValidate": 3587,
      "ĠâĪĪ": 3588,
      "FF": 3589,
      "fn": 3590,
      "ymb": 3591,
      "Ġcross": 3592,
      "Ġindic": 3593,
      "Ġdir": 3594,
      "ĠPer": 3595,
      "actual": 3596,
      "forced": 3597,
      "stitutional": 3598,
      "ĊĠĠĠĠĠĠĠĠĠĠĠĠĠĠĠĠĠĠĠĠĠĠĠĠĠĠĠĠĠĠĠĠĠĠĠ": 3599,
      "rules": 3600,
      "zero": 3601,
      "Ġnet": 3602,
      "rensic": 3603,
      "Ġmodels": 3604,
      "}/{": 3605,
      "Can": 3606,
      "tk": 3607,
      "standards": 3608,
      "ĠMax": 3609,
      "eta": 3610,
      "scripts": 3611,
      "Ġframework": 3612,
      "Logger": 3613,
      "TRACT": 3614,
      "Ġbounds": 3615,
      "mplementation": 3616,
      "Ġauthority": 3617,
      "CATEGORIES": 3618,
      "UTION": 3619,
      "ling": 3620,
      "alced": 3621,
      "measure": 3622,
      "Ġnegative": 3623,
      "systems": 3624,
      "ĠEnergy": 3625,
      "ĠChat": 3626,
      "track": 3627,
      "ARDS": 3628,
      "Ġobjects": 3629,
      "alcedon": 3630,
      ")\\": 3631,
      "UB": 3632,
      "YL": 3633,
      "gb": 3634,
      "gpt": 3635,
      "leep": 3636,
      "ider": 3637,
      "ressed": 3638,
      "Ġled": 3639,
      "ĠTheorem": 3640,
      "MARY": 3641,
      "POL": 3642,
      "oo": 3643,
      "xy": 3644,
      "asci": 3645,
      "oft": 3646,
      "ERGEN": 3647,
      "Ġtools": 3648,
      "boarding": 3649,
      "rupt": 3650,
      "ascii": 3651,
      "70": 3652,
      "Com": 3653,
      "JEC": 3654,
      "Sh": 3655,
      "inv": 3656,
      "orary": 3657,
      "loor": 3658,
      "Ġwitness": 3659,
      "change": 3660,
      "Ġcompute": 3661,
      "igned": 3662,
      "Inter": 3663,
      "Ġcorrect": 3664,
      "hood": 3665,
      "before": 3666,
      "functions": 3667,
      "Ġparent": 3668,
      "Ġdependencies": 3669,
      "ĠAND": 3670,
      "ĠExtract": 3671,
      "ĠValidation": 3672,
      "bat": 3673,
      "Ġlabel": 3674,
      "endment": 3675,
      "Ġtop": 3676,
      "Ġ})": 3677,
      "processing": 3678,
      "Ġzero": 3679,
      "ĠLogos": 3680,
      "trained": 3681,
      "18": 3682,
      "LL": 3683,
      "daemon": 3684,
      "sifiability": 3685,
      "\"\")": 3686,
      "Ġdensity": 3687,
      "ender": 3688,
      "Ġsection": 3689,
      "Ġalert": 3690,
      "typical": 3691,
      "group": 3692,
      "Ġfactor": 3693,
      "ISSUES": 3694,
      "TRANS": 3695,
      "ium": 3696,
      "Ġsequence": 3697,
      "Ġledger": 3698,
      "gap": 3699,
      "Ġcalcul": 3700,
      "Ġter": 3701,
      "orted": 3702,
      "Ġlate": 3703,
      "irc": 3704,
      "=[],": 3705,
      "OMIC": 3706,
      "Ġraises": 3707,
      "Ġapply": 3708,
      "Ġrequests": 3709,
      "parts": 3710,
      "Trans": 3711,
      "cid": 3712,
      "Ġtri": 3713,
      "Ġsafe": 3714,
      "Ġnormal": 3715,
      "usage": 3716,
      "ĠSpec": 3717,
      "ĠLe": 3718,
      "Ġinto": 3719,
      "grad": 3720,
      "falsifies": 3721,
      ")]": 3722,
      "Class": 3723,
      "CUR": 3724,
      "Dataset": 3725,
      "ederal": 3726,
      "estimated": 3727,
      "Ġchanges": 3728,
      "Cont": 3729,
      "Ġtransform": 3730,
      "authority": 3731,
      "itecture": 3732,
      "'}\")": 3733,
      "42": 3734,
      "At": 3735,
      "yeshua": 3736,
      "mapping": 3737,
      "ĠâĿĮ": 3738,
      "Ġtheological": 3739,
      "Ġshard": 3740,
      "mption": 3741,
      "ĠGenerated": 3742,
      "ĠVERIFICATION": 3743,
      "fs": 3744,
      "ufact": 3745,
      "ĠSafety": 3746,
      "imic": 3747,
      "reduction": 3748,
      "ĠReport": 3749,
      "Ġengine": 3750,
      "ĠUse": 3751,
      "Ġdiction": 3752,
      "STRATION": 3753,
      "tention": 3754,
      "ontology": 3755,
      "\".": 3756,
      "ton": 3757,
      "Ġ\"\")": 3758,
      "Ġtrue": 3759,
      "usality": 3760,
      "ending": 3761,
      "omin": 3762,
      "Ġthan": 3763,
      "Ġpaths": 3764,
      "ĠKey": 3765,
      "pochs": 3766,
      "!\")": 3767,
      "NT": 3768,
      "Ġincident": 3769,
      "peano": 3770,
      "ĠArt": 3771,
      "Ġbelow": 3772,
      "Exit": 3773,
      "filename": 3774,
      "Ġvia": 3775,
      "imicry": 3776,
      "ĠFrame": 3777,
      "ĠAd": 3778,
      "Checker": 3779,
      "-%": 3780,
      "KE": 3781,
      "NED": 3782,
      "car": 3783,
      "gn": 3784,
      "stability": 3785,
      "seek": 3786,
      "Ġbuild": 3787,
      "ĠFormal": 3788,
      "ĠDep": 3789,
      "Ġexternal": 3790,
      "Ġanalyze": 3791,
      "Ġlogic": 3792,
      "matches": 3793,
      "Ġaccept": 3794,
      "ledger": 3795,
      "Ġvector": 3796,
      "64": 3797,
      "Arg": 3798,
      "aint": 3799,
      "bf": 3800,
      "Ġcert": 3801,
      "ilarity": 3802,
      "rency": 3803,
      "Ġgenerated": 3804,
      "AGE": 3805,
      ".__": 3806,
      "EP": 3807,
      "Step": 3808,
      "cpu": 3809,
      "iency": 3810,
      "Ġimplement": 3811,
      "standard": 3812,
      "lot": 3813,
      "gex": 3814,
      "====================": 3815,
      "ĠMin": 3816,
      "top": 3817,
      "Inte": 3818,
      "Ġperson": 3819,
      "ranch": 3820,
      "hip": 3821,
      "ipped": 3822,
      "ular": 3823,
      "ĠTHE": 3824,
      "ĠCFR": 3825,
      "Ġchild": 3826,
      "Ġvis": 3827,
      "queue": 3828,
      "SION": 3829,
      "canal": 3830,
      "curacy": 3831,
      "schedule": 3832,
      "ience": 3833,
      "uous": 3834,
      "xiv": 3835,
      "ong": 3836,
      "encoding": 3837,
      "Ġwarning": 3838,
      "quant": 3839,
      "Ġtrigger": 3840,
      "theory": 3841,
      "Ġminimum": 3842,
      "require": 3843,
      "IGHT": 3844,
      "Ġtracking": 3845,
      "IP": 3846,
      "TIAL": 3847,
      "Ġleft": 3848,
      "uarante": 3849,
      "ĠTimestamp": 3850,
      ":,": 3851,
      "frequency": 3852,
      "strength": 3853,
      "portion": 3854,
      "ferences": 3855,
      "ignore": 3856,
      "ĠHT": 3857,
      "Ġ\\\\": 3858,
      "ĠINTE": 3859,
      "ĠShow": 3860,
      "SUMER": 3861,
      "cript": 3862,
      "mass": 3863,
      "ĠTotal": 3864,
      "usp": 3865,
      "chan": 3866,
      "Ġhours": 3867,
      "Ġchar": 3868,
      "Ġfalse": 3869,
      "CONSUMER": 3870,
      "Ġarithmetic": 3871,
      "Ġinputs": 3872,
      "initialized": 3873,
      "Ġderivation": 3874,
      "(\"\")": 3875,
      "axiom": 3876,
      "erator": 3877,
      "Ġinte": 3878,
      "server": 3879,
      "Ġshow": 3880,
      "corporate": 3881,
      "THEMA": 3882,
      "DS": 3883,
      "Format": 3884,
      "List": 3885,
      "Source": 3886,
      "Ġstructural": 3887,
      "liken": 3888,
      "Ġlimits": 3889,
      "###": 3890,
      "Severity": 3891,
      "spection": 3892,
      "side": 3893,
      "ĠĠĠĠĠĠ": 3894,
      "cel": 3895,
      "Ġdimension": 3896,
      "allerg": 3897,
      "REPO": 3898,
      "epseek": 3899,
      "proofs": 3900,
      "PROTECTION": 3901,
      "signature": 3902,
      "RYPT": 3903,
      "Argument": 3904,
      "likeness": 3905,
      "''": 3906,
      "HIGH": 3907,
      "sin": 3908,
      "resolve": 3909,
      "INFO": 3910,
      "period": 3911,
      "Ġglob": 3912,
      "signal": 3913,
      "MS": 3914,
      "SYSTEM": 3915,
      "unity": 3916,
      "Ġoptim": 3917,
      "Ġexact": 3918,
      "nowled": 3919,
      "ious": 3920,
      "META": 3921,
      "Parser": 3922,
      "Ġsuccessfully": 3923,
      "PLO": 3924,
      "Î£": 3925,
      "idx": 3926,
      "directed": 3927,
      "quality": 3928,
      "Ġrules": 3929,
      "Ġdemonstrate": 3930,
      "uardi": 3931,
      "Node": 3932,
      "[[": 3933,
      "Ġplaceholder": 3934,
      "Ġchange": 3935,
      "yntax": 3936,
      "ĠCompute": 3937,
      "fare": 3938,
      "fixed": 3939,
      "rank": 3940,
      "On": 3941,
      "build": 3942,
      "ym": 3943,
      "Ġq": 3944,
      "arfare": 3945,
      "002": 3946,
      "Ġmeasure": 3947,
      "ission": 3948,
      "ECK": 3949,
      "Ġpositive": 3950,
      "Ġconsistency": 3951,
      "Author": 3952,
      "STANDARDS": 3953,
      "Ġdictionary": 3954,
      "drift": 3955,
      "ior": 3956,
      "margin": 3957,
      "Ġlocal": 3958,
      "decision": 3959,
      "Ġreference": 3960,
      "ingredient": 3961,
      "Ġsave": 3962,
      "ulatory": 3963,
      "comb": 3964,
      "REAL": 3965,
      "Ġprodu": 3966,
      "IGNOR": 3967,
      "Ġoperator": 3968,
      "ossibility": 3969,
      "Event": 3970,
      "Found": 3971,
      "ZE": 3972,
      "functor": 3973,
      "sur": 3974,
      "Ġmism": 3975,
      "TIES": 3976,
      "exp": 3977,
      "person": 3978,
      "hesis": 3979,
      "Ġfunctions": 3980,
      "ierarch": 3981,
      "producible": 3982,
      "ypothesis": 3983,
      "\"âľĵ": 3984,
      "free": 3985,
      "nal": 3986,
      "oid": 3987,
      "Ġcovenant": 3988,
      "Ġproperties": 3989,
      "actor": 3990,
      "ĠCount": 3991,
      "Ġworkspace": 3992,
      "Ġ%(": 3993,
      "returncode": 3994,
      "Ġholds": 3995,
      "nd": 3996,
      "Ġpreserved": 3997,
      "Ġcal": 3998,
      "ĠâĦ": 3999,
      "Ġprotection": 4000,
      "Ġoutputs": 4001,
      "anged": 4002,
      "corator": 4003,
      "cause": 4004,
      "ergency": 4005,
      "oftware": 4006,
      "ERGENCY": 4007,
      "Fe": 4008,
      "Failure": 4009,
      "rove": 4010,
      "cedent": 4011,
      "Ġremain": 4012,
      "cks": 4013,
      "Ġdecision": 4014,
      "Ġgradient": 4015,
      "question": 4016,
      "BANNED": 4017,
      "initialize": 4018,
      "He": 4019,
      "Ġclean": 4020,
      "ĠCU": 4021,
      "applied": 4022,
      "Ġchannel": 4023,
      "RIAL": 4024,
      "correct": 4025,
      "fields": 4026,
      "vestigation": 4027,
      "PLOY": 4028,
      "95": 4029,
      "CTED": 4030,
      "CRYPT": 4031,
      "sing": 4032,
      "sleep": 4033,
      "Ġinvalid": 4034,
      "ĠPh": 4035,
      "ĠModel": 4036,
      "ĠReg": 4037,
      "ĠInvariants": 4038,
      "Ġallocated": 4039,
      "Ġuses": 4040,
      "Ġpriority": 4041,
      "handler": 4042,
      "eration": 4043,
      "Ġtwo": 4044,
      "pack": 4045,
      "Ġstatement": 4046,
      "Ġsignal": 4047,
      "ĠApply": 4048,
      "05": 4049,
      "26": 4050,
      "ITE": 4051,
      "kip": 4052,
      "ually": 4053,
      "algebra": 4054,
      "detector": 4055,
      "ĠComplete": 4056,
      "keywords": 4057,
      "ECASE": 4058,
      "Ġtoolkit": 4059,
      "MEDICAL": 4060,
      "IGNORECASE": 4061,
      "ierarchy": 4062,
      "soul": 4063,
      "Ġarch": 4064,
      "Ġ====================": 4065,
      "master": 4066,
      "istant": 4067,
      "Ġbuilt": 4068,
      "Ġexplicit": 4069,
      "ypes": 4070,
      "Ġusage": 4071,
      "Ġpreservation": 4072,
      "Ġdifferent": 4073,
      "lished": 4074,
      "enchmark": 4075,
      "ĠCUDA": 4076,
      "MO": 4077,
      "Po": 4078,
      "PRI": 4079,
      "kw": 4080,
      "nual": 4081,
      "Ġden": 4082,
      "Ġdate": 4083,
      "Ġexp": 4084,
      "ĠMCP": 4085,
      "Ġgit": 4086,
      "redic": 4087,
      "Ġmessages": 4088,
      "ICS": 4089,
      "dirs": 4090,
      "ĠStat": 4091,
      "Time": 4092,
      "UP": 4093,
      "dim": 4094,
      "entropy": 4095,
      "Ġmore": 4096,
      "ĠMon": 4097,
      "ĠMIN": 4098,
      "Ġviolated": 4099,
      "LECT": 4100,
      "ATIONAL": 4101,
      "joint": 4102,
      "eval": 4103,
      "Ġflow": 4104,
      "Ġpay": 4105,
      "Ġpolicy": 4106,
      "ĊĠĠĠĠĠĠĠĠĠĠĠĠĊĠĠĠĠĠĠĠ": 4107,
      "Ġstability": 4108,
      "performance": 4109,
      "ICE": 4110,
      "alyses": 4111,
      "egrated": 4112,
      "documentation": 4113,
      "ĠQ": 4114,
      "real": 4115,
      "ĠCPU": 4116,
      "resolved": 4117,
      "ĠIdentity": 4118,
      "ĠStart": 4119,
      "outputs": 4120,
      "ĠCONSTRA": 4121,
      "lapsed": 4122,
      "METADATA": 4123,
      "DIG": 4124,
      "EQU": 4125,
      "RC": 4126,
      "sq": 4127,
      "iness": 4128,
      "===": 4129,
      "pet": 4130,
      "ĠNatural": 4131,
      "Ġvs": 4132,
      "Ġdisplay": 4133,
      "dependencies": 4134,
      "variables": 4135,
      "-{": 4136,
      "Ext": 4137,
      "facility": 4138,
      "pistemic": 4139,
      "mean": 4140,
      "Ġstore": 4141,
      "ĠBUILD": 4142,
      "ampa": 4143,
      "EK": 4144,
      "Mon": 4145,
      "bor": 4146,
      "bug": 4147,
      "umn": 4148,
      "ĠNO": 4149,
      "ENTED": 4150,
      "Ġsearch": 4151,
      "PAT": 4152,
      "âĶĢâĶĢâĶĢâĶĢâĶĢâĶĢâĶĢâĶĢâĶĢâĶĢâĶĢâĶĢâĶĢâĶĢâĶĢâĶĢâĶĢâĶĢâĶĢâĶĢâĶĢâĶĢâĶĢâĶĢâĶĢâĶĢâĶĢâĶĢâĶĢâĶĢâĶĢâĶĢ": 4153,
      "Ġconditions": 4154,
      "onomy": 4155,
      "chestration": 4156,
      "ampaign": 4157,
      ":%": 4158,
      "random": 4159,
      "Ġold": 4160,
      "ended": 4161,
      "Ġnow": 4162,
      "Ġ).": 4163,
      "ĠST": 4164,
      "Ġmath": 4165,
      "ĠEvery": 4166,
      "Start": 4167,
      "duate": 4168,
      "SIZE": 4169,
      "Ġinitialized": 4170,
      "latex": 4171,
      "Add": 4172,
      "WARNING": 4173,
      "hn": 4174,
      "ians": 4175,
      "rag": 4176,
      "ORK": 4177,
      "Ġfalsifiable": 4178,
      "ĠStage": 4179,
      "Ġperformance": 4180,
      "causal": 4181,
      "LOW": 4182,
      "structed": 4183,
      "ĠINV": 4184,
      "closed": 4185,
      "CRITICAL": 4186,
      "EU": 4187,
      "LM": 4188,
      "PHASE": 4189,
      "VA": 4190,
      "ĠOR": 4191,
      "Ġ\"[": 4192,
      "dequ": 4193,
      "Ġforce": 4194,
      "ĠSub": 4195,
      "properties": 4196,
      "argv": 4197,
      "LEG": 4198,
      "ĠConfig": 4199,
      "within": 4200,
      "Ġ1024": 4201,
      "author": 4202,
      "uspension": 4203,
      ")\"\"\"": 4204,
      "Sodium": 4205,
      "preserved": 4206,
      "tology": 4207,
      "vis": 4208,
      "Ġport": 4209,
      "ulate": 4210,
      "ĠSimple": 4211,
      "cessity": 4212,
      "Ġassessment": 4213,
      "Standard": 4214,
      "statement": 4215,
      "Ġstates": 4216,
      "pending": 4217,
      "Ġprevious": 4218,
      "CIAL": 4219,
      "EMERGENCY": 4220,
      "temperature": 4221,
      "suffix": 4222,
      "ĠImportError": 4223,
      "Box": 4224,
      "\\.": 4225,
      "udi": 4226,
      "Ġactions": 4227,
      "Ġ19": 4228,
      "ĠMod": 4229,
      "udy": 4230,
      "Engine": 4231,
      "ULT": 4232,
      "emonstrate": 4233,
      "COMPLIANCE": 4234,
      "cc": 4235,
      "dated": 4236,
      "rig": 4237,
      "Ġlock": 4238,
      "ite": 4239,
      "Ġnorm": 4240,
      "ĠTry": 4241,
      "ĠPeano": 4242,
      "ĠAxiom": 4243,
      "Ġstored": 4244,
      "Ġtheory": 4245,
      "protection": 4246,
      "Ġcontradi": 4247,
      "Ġthread": 4248,
      "Ġtrail": 4249,
      "aster": 4250,
      "IFIED": 4251,
      "Any": 4252,
      "market": 4253,
      "La": 4254,
      "natural": 4255,
      "vation": 4256,
      "inary": 4257,
      "Ġaxiom": 4258,
      "ĠCOR": 4259,
      "TIL": 4260,
      "INS": 4261,
      "TES": 4262,
      "liability": 4263,
      "LABOR": 4264,
      "graph": 4265,
      "CTURE": 4266,
      "ĠTesting": 4267,
      "Ġcontains": 4268,
      "CODE": 4269,
      "sink": 4270,
      "}}": 4271,
      "Ġcontrol": 4272,
      "ifiable": 4273,
      "states": 4274,
      "ĠUN": 4275,
      "SEC": 4276,
      "PUB": 4277,
      "ermal": 4278,
      "Ġtokenizer": 4279,
      "DUST": 4280,
      "sufficient": 4281,
      "ufacturing": 4282,
      "aconsistent": 4283,
      "sensit": 4284,
      "Ġorthogonal": 4285,
      "arxiv": 4286,
      "ifies": 4287,
      "Ġproperty": 4288,
      "ANON": 4289,
      "Ġreports": 4290,
      "ynthe": 4291,
      "uctured": 4292,
      "LOC": 4293,
      "servations": 4294,
      "ĠIntegration": 4295,
      "ArgumentParser": 4296,
      "27": 4297,
      "var": 4298,
      "atives": 4299,
      "Ġcandidate": 4300,
      "loop": 4301,
      "ĠFIGHT": 4302,
      "ĠPattern": 4303,
      "connect": 4304,
      "ONE": 4305,
      "ĠMan": 4306,
      "dustr": 4307,
      "Example": 4308,
      "relation": 4309,
      "bounds": 4310,
      "ODEL": 4311,
      "PUBLIC": 4312,
      "first": 4313,
      "rand": 4314,
      "Ġ{{": 4315,
      "covenant": 4316,
      "adox": 4317,
      "ĠDA": 4318,
      "ĠEN": 4319,
      "Ġimports": 4320,
      "mathematical": 4321,
      "ĠWe": 4322,
      "register": 4323,
      "Ġmap": 4324,
      "Ġdiff": 4325,
      "allenge": 4326,
      "PLOYMENT": 4327,
      "PATTERN": 4328,
      "AUDIT": 4329,
      "MB": 4330,
      "ene": 4331,
      "itiz": 4332,
      "Ġsur": 4333,
      "Ġexport": 4334,
      "Ġrespon": 4335,
      "uper": 4336,
      "names": 4337,
      "parency": 4338,
      "ĠGovernance": 4339,
      "Request": 4340,
      "indic": 4341,
      "ĠâĪ§": 4342,
      "ETH": 4343,
      "lat": 4344,
      "prem": 4345,
      "ts": 4346,
      "vol": 4347,
      "unic": 4348,
      "Ġindependent": 4349,
      "vided": 4350,
      "')}\")": 4351,
      "Ġclassification": 4352,
      "Ġcolor": 4353,
      "operations": 4354,
      "producibility": 4355,
      "EQUITY": 4356,
      "uting": 4357,
      "ĠMathematical": 4358,
      "stract": 4359,
      "modules": 4360,
      "missions": 4361,
      "Manager": 4362,
      "Pre": 4363,
      "fold": 4364,
      "next": 4365,
      "pm": 4366,
      "ral": 4367,
      "uuid": 4368,
      "wh": 4369,
      "Ġ`": 4370,
      "stand": 4371,
      "Ġfindings": 4372,
      "ĠFound": 4373,
      "']:.": 4374,
      "scale": 4375,
      "Ġsem": 4376,
      "ĠDeepSeek": 4377,
      "correspondence": 4378,
      "Ġcases": 4379,
      "ĠUni": 4380,
      "speaker": 4381,
      "manager": 4382,
      "CRYPTO": 4383,
      "Min": 4384,
      "average": 4385,
      "findings": 4386,
      "lies": 4387,
      "pus": 4388,
      "complexity": 4389,
      "Ġmerkle": 4390,
      "classified": 4391,
      "Ġcomprehensive": 4392,
      "Initialize": 4393,
      "ðŁİ": 4394,
      "fragrance": 4395,
      "vides": 4396,
      "APE": 4397,
      "BE": 4398,
      "alignment": 4399,
      "Ġfinite": 4400,
      "assessment": 4401,
      "ison": 4402,
      "ĠFind": 4403,
      "ĠDaemon": 4404,
      "Ġcore": 4405,
      "Ġgap": 4406,
      "ategorical": 4407,
      "Ġkernel": 4408,
      "DISA": 4409,
      "Ġweight": 4410,
      "Ġabs": 4411,
      "UNDING": 4412,
      "ĠAuto": 4413,
      "Cor": 4414,
      "MIL": 4415,
      "Ġlower": 4416,
      "demo": 4417,
      "detect": 4418,
      "Ġtags": 4419,
      "Ġredirected": 4420,
      "Ġconstructed": 4421,
      "mplements": 4422,
      "putation": 4423,
      "egin": 4424,
      "Independent": 4425,
      "modified": 4426,
      "aves": 4427,
      "dependence": 4428,
      "uardian": 4429,
      "ubject": 4430,
      "ww": 4431,
      "instruction": 4432,
      "iff": 4433,
      "ĠTRA": 4434,
      "Ġ}}": 4435,
      "sitions": 4436,
      "Ġlength": 4437,
      "formal": 4438,
      "SEEK": 4439,
      "ixed": 4440,
      "Ġraw": 4441,
      "clean": 4442,
      "curs": 4443,
      "uffer": 4444,
      "automation": 4445,
      "mediate": 4446,
      "redicate": 4447,
      "BUILD": 4448,
      "IX": 4449,
      "greg": 4450,
      "alled": 4451,
      "Ġfallback": 4452,
      "ather": 4453,
      "Ġprogram": 4454,
      "Ġgraph": 4455,
      "Ġseconds": 4456,
      "ĠInter": 4457,
      "codeError": 4458,
      "ĠDeterministic": 4459,
      "FAILURE": 4460,
      "capability": 4461,
      "Ġloop": 4462,
      "EPSEEK": 4463,
      "AVI": 4464,
      "OE": 4465,
      "equ": 4466,
      "orensic": 4467,
      "Ġsuff": 4468,
      "Ġschedule": 4469,
      "uler": 4470,
      "covered": 4471,
      "Ġcover": 4472,
      "inement": 4473,
      "ĠState": 4474,
      "reports": 4475,
      "license": 4476,
      "Ġavg": 4477,
      "rows": 4478,
      "ircuit": 4479,
      "Feature": 4480,
      ",)),": 4481,
      "Verification": 4482,
      "ount": 4483,
      "yle": 4484,
      "deepseek": 4485,
      "Ġdevice": 4486,
      "Ġconflict": 4487,
      "Ġvalidator": 4488,
      "lability": 4489,
      "Ġallowed": 4490,
      "successful": 4491,
      "runtime": 4492,
      "Ġexecute": 4493,
      "ĠCompliance": 4494,
      "ridge": 4495,
      "WEB": 4496,
      "88": 4497,
      "GB": 4498,
      "MAR": 4499,
      "WA": 4500,
      "ausal": 4501,
      "hib": 4502,
      "lan": 4503,
      "pulation": 4504,
      "leaf": 4505,
      "Ġredirect": 4506,
      "Ġinformation": 4507,
      "(\"--": 4508,
      "verbose": 4509,
      "ĠPipeline": 4510,
      "chool": 4511,
      "export": 4512,
      "RESTRIC": 4513,
      "Ġproper": 4514,
      "ENO": 4515,
      "ĠRead": 4516,
      "keep": 4517,
      "ffort": 4518,
      "Ġparse": 4519,
      "LECTION": 4520,
      "address": 4521,
      "ĠĠĠĠĠĠĠĠĠĠĠĠĠĠĠĠ": 4522,
      "curity": 4523,
      "ĠJSONL": 4524,
      "rich": 4525,
      "allergen": 4526,
      "AVIATION": 4527,
      "><": 4528,
      "Train": 4529,
      "fession": 4530,
      "ock": 4531,
      "ppe": 4532,
      "allowed": 4533,
      "Ġcli": 4534,
      "ulner": 4535,
      "istical": 4536,
      "ordin": 4537,
      "override": 4538,
      "Ġmay": 4539,
      "Ġdemonstration": 4540,
      "year": 4541,
      "dry": 4542,
      "mendment": 4543,
      "player": 4544,
      "patent": 4545,
      "oly": 4546,
      "Ġdry": 4547,
      "ĠFinal": 4548,
      "Ġow": 4549,
      "rier": 4550,
      "control": 4551,
      "crease": 4552,
      "ront": 4553,
      "Ġobservation": 4554,
      "ĠFiles": 4555,
      "candidates": 4556,
      "sis": 4557,
      "rections": 4558,
      "determinism": 4559,
      "Ġrestr": 4560,
      "otential": 4561,
      "Ġword": 4562,
      "Ġworld": 4563,
      "INDUST": 4564,
      "Ġresent": 4565,
      "ysics": 4566,
      "ship": 4567,
      "false": 4568,
      "framework": 4569,
      "Ġ...]": 4570,
      "Token": 4571,
      "chanism": 4572,
      "40": 4573,
      "dist": 4574,
      "ohn": 4575,
      "Ġlow": 4576,
      "ĠĠĊĠĠĠĠĠĠĠĠĠĠĠĠĠĠĠĠĠĠĠ": 4577,
      "learning": 4578,
      "Ġreplace": 4579,
      "icial": 4580,
      "Ġbudget": 4581,
      "ĠScan": 4582,
      "iminal": 4583,
      "assigned": 4584,
      "antine": 4585,
      "Ġlink": 4586,
      "ĠLOG": 4587,
      "Ġprocessed": 4588,
      "should": 4589,
      "Ġhasattr": 4590,
      "readable": 4591,
      "color": 4592,
      "Ġprior": 4593,
      "ENSING": 4594,
      "NO": 4595,
      "cri": 4596,
      "doc": 4597,
      "atibility": 4598,
      "recommendations": 4599,
      "Ġcmd": 4600,
      "raw": 4601,
      "ĠSUM": 4602,
      "defined": 4603,
      "Ġ200": 4604,
      "={{": 4605,
      "pressure": 4606,
      "Ġposition": 4607,
      "ractal": 4608,
      "Ġproductive": 4609,
      "]}...\")": 4610,
      "https": 4611,
      "28": 4612,
      "Aut": 4613,
      "USE": 4614,
      "tc": 4615,
      "}}\",": 4616,
      "alty": 4617,
      "dep": 4618,
      "Ġrememb": 4619,
      "(\"âĿĮ": 4620,
      "ĠFailed": 4621,
      "Ġdetail": 4622,
      "ĠDEMON": 4623,
      "imed": 4624,
      "READ": 4625,
      "Store": 4626,
      "DecodeError": 4627,
      "CONTRACT": 4628,
      "avg": 4629,
      "vironmental": 4630,
      "Ġdocumentation": 4631,
      "kwargs": 4632,
      "ĠSUMMARY": 4633,
      "Missing": 4634,
      "Mathematical": 4635,
      "lates": 4636,
      "Ġevaluation": 4637,
      "structural": 4638,
      "velo": 4639,
      "Ġmargin": 4640,
      "Ġ16": 4641,
      "proj": 4642,
      "LASS": 4643,
      "byte": 4644,
      "reaty": 4645,
      "scope": 4646,
      "GOVERNANCE": 4647,
      "ALIDATION": 4648,
      "Ġredirecting": 4649,
      "RESTRICTED": 4650,
      "Ġresented": 4651,
      "Ġremembered": 4652,
      ")):": 4653,
      "GPT": 4654,
      "Limit": 4655,
      "enforcer": 4656,
      "sections": 4657,
      "itude": 4658,
      "ife": 4659,
      "otic": 4660,
      "ĠOutput": 4661,
      "continu": 4662,
      "Ġgetattr": 4663,
      "Ġhtml": 4664,
      "BI": 4665,
      "IRE": 4666,
      "KN": 4667,
      "ake": 4668,
      "atal": 4669,
      "utive": 4670,
      "edge": 4671,
      "()}\")": 4672,
      "Ġgra": 4673,
      "EDUC": 4674,
      "Ġjurisdiction": 4675,
      "pired": 4676,
      "stants": 4677,
      "ĠFAILED": 4678,
      "Ġdirectories": 4679,
      "walk": 4680,
      "EW": 4681,
      "ape": 4682,
      "dition": 4683,
      "ised": 4684,
      "enabled": 4685,
      "Ġelement": 4686,
      "()[:": 4687,
      "exception": 4688,
      "ĠMed": 4689,
      "ANCIAL": 4690,
      "sets": 4691,
      "OLD": 4692,
      "cesses": 4693,
      "ĠTheory": 4694,
      "}:{": 4695,
      "Ġknown": 4696,
      "Ġ||": 4697,
      "structions": 4698,
      "Entry": 4699,
      "Analysis": 4700,
      "FILE": 4701,
      "85": 4702,
      "Pattern": 4703,
      "tic": 4704,
      "Ġimm": 4705,
      "separation": 4706,
      "ctx": 4707,
      "arison": 4708,
      "esus": 4709,
      "ofix": 4710,
      "ĠCol": 4711,
      "ĠSensor": 4712,
      "ALY": 4713,
      "pare": 4714,
      "FARE": 4715,
      "Ġrecords": 4716,
      "Ġtemperature": 4717,
      "Ġchunks": 4718,
      "ðŁĵĬ": 4719,
      "KEY": 4720,
      "1000": 4721,
      "junction": 4722,
      "xact": 4723,
      "hel": 4724,
      "urity": 4725,
      "Ġequ": 4726,
      "(\"âľĵ": 4727,
      "ĠPart": 4728,
      "('%": 4729,
      "Ġcausal": 4730,
      "ĠREPO": 4731,
      "warnings": 4732,
      "ruption": 4733,
      "TRUST": 4734,
      "stdout": 4735,
      ":\",": 4736,
      "Tra": 4737,
      "balance": 4738,
      "Ġes": 4739,
      "eries": 4740,
      "Ġcache": 4741,
      "cket": 4742,
      "ached": 4743,
      "permit": 4744,
      "unding": 4745,
      "Ġmedi": 4746,
      "Ġalways": 4747,
      "Repository": 4748,
      "Ġkeywords": 4749,
      "indows": 4750,
      "ANTITRUST": 4751,
      "LEGAL": 4752,
      ");": 4753,
      "Dis": 4754,
      "Governance": 4755,
      "Handler": 4756,
      "bott": 4757,
      "hy": 4758,
      "oter": 4759,
      "otion": 4760,
      "ĠdB": 4761,
      "conversation": 4762,
      "Ġchecker": 4763,
      "Def": 4764,
      "Ġgenerator": 4765,
      "speed": 4766,
      "posal": 4767,
      "EXT": 4768,
      "COMPLETE": 4769,
      "ĠExecution": 4770,
      "Ġconsistent": 4771,
      "FINANCIAL": 4772,
      "ndarray": 4773,
      "Build": 4774,
      "inventory": 4775,
      "Ġ\"**": 4776,
      "messages": 4777,
      "height": 4778,
      "heaf": 4779,
      "urrection": 4780,
      "ollow": 4781,
      "Ġelements": 4782,
      "Ġconfir": 4783,
      "ALCED": 4784,
      "Ġgrant": 4785,
      ")))": 4786,
      "THRE": 4787,
      "Ġlearning": 4788,
      "ugment": 4789,
      "TICS": 4790,
      "lighting": 4791,
      "TILITY": 4792,
      "INDUSTRIAL": 4793,
      "EDUCATION": 4794,
      "ALCEDON": 4795,
      "(\\": 4796,
      "(_": 4797,
      "BL": 4798,
      "Name": 4799,
      "body": 4800,
      "candidate": 4801,
      "dest": 4802,
      "adapt": 4803,
      "Ġresolved": 4804,
      "Ġgrid": 4805,
      "ĠOE": 4806,
      "usters": 4807,
      "Ġexceed": 4808,
      "Ġparam": 4809,
      "TAX": 4810,
      "Ġkeyword": 4811,
      "Ġinterface": 4812,
      "Theorem": 4813,
      "Ġserver": 4814,
      "ĠTransaction": 4815,
      "ominator": 4816,
      "VACY": 4817,
      "36": 4818,
      "WEL": 4819,
      "wd": 4820,
      "analyses": 4821,
      "Ġrecovery": 4822,
      "Ġinclude": 4823,
      "Ġwill": 4824,
      "endswith": 4825,
      "ERS": 4826,
      "ansion": 4827,
      "labor": 4828,
      "book": 4829,
      "CHILD": 4830,
      "Ġmaximum": 4831,
      "capture": 4832,
      "restrict": 4833,
      "Ġbounded": 4834,
      "ainty": 4835,
      "Ġglobal": 4836,
      "Ġmismatch": 4837,
      "PRIVACY": 4838,
      "ET": 4839,
      "aff": 4840,
      "elements": 4841,
      "lor": 4842,
      "oState": 4843,
      "sec": 4844,
      "ote": 4845,
      "Ġdim": 4846,
      "Ġdistance": 4847,
      "ultip": 4848,
      "ilation": 4849,
      "cluster": 4850,
      "abs": 4851,
      "perator": 4852,
      "quired": 4853,
      "Ġtesting": 4854,
      "extract": 4855,
      "occur": 4856,
      "Ġcanal": 4857,
      "Response": 4858,
      "Ġâī¤": 4859,
      "Ġpreserves": 4860,
      "ĠEXEC": 4861,
      "dustry": 4862,
      "fessional": 4863,
      "gpu": 4864,
      "sage": 4865,
      "Ġms": 4866,
      "Ġgpu": 4867,
      "LAIM": 4868,
      "Ġmean": 4869,
      "ĠExample": 4870,
      "shift": 4871,
      "ROAD": 4872,
      "note": 4873,
      "observation": 4874,
      "OCUM": 4875,
      "icky": 4876,
      "havi": 4877,
      "since": 4878,
      "User": 4879,
      "calcul": 4880,
      "Ġadapt": 4881,
      "ĠSummary": 4882,
      "cons": 4883,
      "viation": 4884,
      "external": 4885,
      "Ġprotocol": 4886,
      "ĠGRA": 4887,
      "ĠRef": 4888,
      "ĠAnalysis": 4889,
      "ĠWrite": 4890,
      "FAMIL": 4891,
      "running": 4892,
      "theological": 4893,
      "ĠDetermine": 4894,
      "toolkit": 4895,
      "Ġplatform": 4896,
      "OCCU": 4897,
      "Ġsupport": 4898,
      "Ġedge": 4899,
      "ANONICAL": 4900,
      "BUILDING": 4901,
      "MARK": 4902,
      "'='": 4903,
      "TFORM": 4904,
      "language": 4905,
      "uty": 4906,
      "utational": 4907,
      "strategy": 4908,
      "ĠSim": 4909,
      "ĠSign": 4910,
      "endor": 4911,
      "holders": 4912,
      "previous": 4913,
      "Ġinterval": 4914,
      "IMM": 4915,
      "clamp": 4916,
      "efficient": 4917,
      "\"-": 4918,
      "29": 4919,
      "Mod": 4920,
      "NOT": 4921,
      "do": 4922,
      "public": 4923,
      "satisf": 4924,
      "torch": 4925,
      "xim": 4926,
      "Ġ\"âľħ": 4927,
      "Ġfrozen": 4928,
      "Ġtitle": 4929,
      "\")]": 4930,
      "Ġdirs": 4931,
      "Ġdetector": 4932,
      "ĠSA": 4933,
      "003": 4934,
      "setup": 4935,
      "minimum": 4936,
      "SECU": 4937,
      "conditions": 4938,
      "Ġspecification": 4939,
      "christological": 4940,
      "MINI": 4941,
      "capacity": 4942,
      "calibration": 4943,
      "ELDER": 4944,
      "Ġunique": 4945,
      "global": 4946,
      "Ġcharact": 4947,
      "99": 4948,
      "Axiom": 4949,
      "Frame": 4950,
      "MAN": 4951,
      "Score": 4952,
      "UTILITY": 4953,
      "dynamic": 4954,
      "elem": 4955,
      "game": 4956,
      "nes": 4957,
      "uses": 4958,
      "Â²": 4959,
      "lex": 4960,
      "Ġcategories": 4961,
      "detail": 4962,
      "Ġrece": 4963,
      "(\"/": 4964,
      "mental": 4965,
      "umber": 4966,
      "lief": 4967,
      "ĠVer": 4968,
      "essence": 4969,
      "RIST": 4970,
      "Ġleaf": 4971,
      "Ġfields": 4972,
      "PLATFORM": 4973,
      "ĠExecute": 4974,
      "csv": 4975,
      "FOOD": 4976,
      "UCCESS": 4977,
      "http": 4978,
      "TRANSIT": 4979,
      "ĠFramework": 4980,
      "Ġinteger": 4981,
      "premium": 4982,
      "WEBSEC": 4983,
      "WELFARE": 4984,
      "FAMILY": 4985,
      "Case": 4986,
      "Rule": 4987,
      "lision": 4988,
      "opt": 4989,
      "wise": 4990,
      "ĊĠĠĠĠĠĠĠĠĊĠĠĠ": 4991,
      "aling": 4992,
      "Ġboth": 4993,
      "ĠCap": 4994,
      "adig": 4995,
      "ĠDataset": 4996,
      "ĠAG": 4997,
      "Ġ//": 4998,
      "PATIONAL": 4999,
      "ĠSystemExit": 5000,
      "limits": 5001,
      "ĠâĪĢ": 5002,
      "grity": 5003,
      "rtual": 5004,
      "medium": 5005,
      "phases": 5006,
      "FORMATION": 5007,
      "Generated": 5008,
      "CODES": 5009,
      "35": 5010,
      "FC": 5011,
      "OUND": 5012,
      "Per": 5013,
      "mation": 5014,
      "mas": 5015,
      "idor": 5016,
      "idual": 5017,
      "istered": 5018,
      "Ġdetect": 5019,
      "ĠAr": 5020,
      "conflict": 5021,
      "Ġstrict": 5022,
      "Ġlicense": 5023,
      "quantum": 5024,
      "ĠâĶĢ": 5025,
      "Ġgame": 5026,
      "Ġcompliant": 5027,
      "SIG": 5028,
      "falsifiable": 5029,
      "requires": 5030,
      "ESTATE": 5031,
      "Ġabout": 5032,
      "Ġmorphisms": 5033,
      "years": 5034,
      "alcedonian": 5035,
      "POLICE": 5036,
      "ĠHTML": 5037,
      "ĠDEMONSTRATION": 5038,
      "OCCUPATIONAL": 5039,
      "Boundary": 5040,
      "Des": 5041,
      "HOUS": 5042,
      "cd": 5043,
      "grace": 5044,
      "td": 5045,
      "atible": 5046,
      "Ġtable": 5047,
      "herence": 5048,
      "ĠLimit": 5049,
      "'].": 5050,
      "protected": 5051,
      "Ġmeta": 5052,
      "ĠVI": 5053,
      "site": 5054,
      "ĠExplicit": 5055,
      "Ġverifier": 5056,
      "Ġreporting": 5057,
      "ITH": 5058,
      "Ġattempt": 5059,
      "Ġminimal": 5060,
      "Ġtrap": 5061,
      "LICENSING": 5062,
      "Ġmeets": 5063,
      "DISABILITY": 5064,
      "AP": 5065,
      "ELECTION": 5066,
      "MON": 5067,
      "Temp": 5068,
      "ZON": 5069,
      "vant": 5070,
      "âĨĴ": 5071,
      "Ġitems": 5072,
      "Ġplace": 5073,
      "Ġcar": 5074,
      "aslighting": 5075,
      "Ġsanit": 5076,
      "Ġdemo": 5077,
      "TIME": 5078,
      "ĠRule": 5079,
      "omorphism": 5080,
      "Ġprovided": 5081,
      "ĠGlass": 5082,
      "ustom": 5083,
      "Ġrunning": 5084,
      "DISTRIC": 5085,
      "URBAN": 5086,
      "EMPLOYMENT": 5087,
      "ĠSelf": 5088,
      "GOVERNMENT": 5089,
      "BANKING": 5090,
      "KNOWN": 5091,
      "ZONING": 5092,
      "2026": 5093,
      ":{": 5094,
      "Data": 5095,
      "Formal": 5096,
      "bers": 5097,
      "mer": 5098,
      "Ġvariance": 5099,
      "engineering": 5100,
      "Ġequivalence": 5101,
      "ully": 5102,
      "ĠManifest": 5103,
      "Ġgiven": 5104,
      "ertia": 5105,
      "Content": 5106,
      "Ġweights": 5107,
      "sensors": 5108,
      "ĠCONSTRAINT": 5109,
      "cription": 5110,
      "HOUSING": 5111,
      "75": 5112,
      "Ad": 5113,
      "BEN": 5114,
      "Function": 5115,
      "Work": 5116,
      "dag": 5117,
      "element": 5118,
      "inversion": 5119,
      "alle": 5120,
      "ish": 5121,
      "Ġduring": 5122,
      "ĠCategory": 5123,
      "chine": 5124,
      "Ġcom": 5125,
      "Ġli": 5126,
      "alluc": 5127,
      "accuracy": 5128,
      "LAR": 5129,
      "ternative": 5130,
      "ivil": 5131,
      "Ġperiod": 5132,
      "rglob": 5133,
      "Ġmaterial": 5134,
      "ULUM": 5135,
      "({\"": 5136,
      "RICULUM": 5137,
      "]}...": 5138,
      "Ġcalls": 5139,
      "vanced": 5140,
      "CURRICULUM": 5141,
      "ENOSIS": 5142,
      "21": 5143,
      "FUNDING": 5144,
      "IAL": 5145,
      "Schema": 5146,
      "Ġ\"##": 5147,
      "ifra": 5148,
      "ĠBuild": 5149,
      "ains": 5150,
      "ĠTruth": 5151,
      "Ġloaded": 5152,
      "flags": 5153,
      "?\",": 5154,
      "hardware": 5155,
      "olean": 5156,
      "rece": 5157,
      "lector": 5158,
      "()),": 5159,
      "Ġappe": 5160,
      "Ġcounter": 5161,
      "INCI": 5162,
      "']}\"": 5163,
      "ĠMemory": 5164,
      "Ġlogos": 5165,
      "ighbor": 5166,
      "ĠConstraints": 5167,
      "Ġtransformation": 5168,
      "RUPT": 5169,
      "LoRA": 5170,
      "uite": 5171,
      "ĠDiagnostic": 5172,
      "HEALTHCARE": 5173,
      "Ġcombined": 5174,
      "nowledge": 5175,
      "DISTRICTS": 5176,
      "202": 5177,
      "As": 5178,
      "BU": 5179,
      "ESS": 5180,
      "FRA": 5181,
      "VED": 5182,
      "bits": 5183,
      "floor": 5184,
      "ruff": 5185,
      "uch": 5186,
      "ðĿ": 5187,
      "intent": 5188,
      "ich": 5189,
      "(\".": 5190,
      "ĠPHASE": 5191,
      "andruff": 5192,
      "Ġop": 5193,
      "Ġstage": 5194,
      "0000": 5195,
      "checked": 5196,
      "Standards": 5197,
      "compile": 5198,
      "ustody": 5199,
      "matrix": 5200,
      "VIEW": 5201,
      "RITIES": 5202,
      "PROCESS": 5203,
      "Ġexecutor": 5204,
      "ADMINI": 5205,
      "Ġcounts": 5206,
      "POW": 5207,
      "STRATIVE": 5208,
      "generation": 5209,
      "TRAINING": 5210,
      "Ġissue": 5211,
      "Metric": 5212,
      "utils": 5213,
      "Ġlatex": 5214,
      "Tokenizer": 5215,
      "')}": 5216,
      "COMM": 5217,
      "LINE": 5218,
      "crusader": 5219,
      "dandruff": 5220,
      "iation": 5221,
      "mergency": 5222,
      "uide": 5223,
      "reated": 5224,
      "recovery": 5225,
      "()}": 5226,
      "ssible": 5227,
      "Ġcons": 5228,
      "ĠSession": 5229,
      "Ġ11": 5230,
      "ector": 5231,
      "ĠViolation": 5232,
      "mination": 5233,
      "derived": 5234,
      "Ġye": 5235,
      "Ġiter": 5236,
      "ĠTran": 5237,
      "Ġgroup": 5238,
      "volutionary": 5239,
      "echn": 5240,
      "BANKRUPT": 5241,
      "alerts": 5242,
      "JECT": 5243,
      "ĠINTEG": 5244,
      "IMMIG": 5245,
      "SECURITIES": 5246,
      "BANKRUPTCY": 5247,
      "mega": 5248,
      "esian": 5249,
      "ablished": 5250,
      "proven": 5251,
      "program": 5252,
      "etch": 5253,
      "ĠGro": 5254,
      "ĠGOVERN": 5255,
      "Ġviolates": 5256,
      "service": 5257,
      "Ġ[]))": 5258,
      "Ġbyte": 5259,
      "cret": 5260,
      "Ġunit": 5261,
      "Ġquant": 5262,
      "Ġcollaboration": 5263,
      "IMAL": 5264,
      "rayer": 5265,
      "iteral": 5266,
      "payload": 5267,
      "solute": 5268,
      "ADMINISTRATIVE": 5269,
      ">=": 5270,
      "Base": 5271,
      "ump": 5272,
      "attempt": 5273,
      "enes": 5274,
      "leak": 5275,
      "Ġrecent": 5276,
      "Ġsp": 5277,
      "Ġsuggest": 5278,
      "maintenance": 5279,
      "istorical": 5280,
      "ĠCode": 5281,
      "distribution": 5282,
      "Ġdiagnostics": 5283,
      "URANCE": 5284,
      "illar": 5285,
      "mitted": 5286,
      "INTEL": 5287,
      "Verifier": 5288,
      "Ġterms": 5289,
      "PATTERNS": 5290,
      "IMMIGRATION": 5291,
      "65": 5292,
      "page": 5293,
      "tensor": 5294,
      "tolerance": 5295,
      "uity": 5296,
      "zed": 5297,
      "ÃĹ": 5298,
      "atches": 5299,
      "attrib": 5300,
      "Ġplayer": 5301,
      "demonstr": 5302,
      "Ġside": 5303,
      "Ġdecorator": 5304,
      "\"]),": 5305,
      "Ġ14": 5306,
      "profile": 5307,
      "elig": 5308,
      "pairs": 5309,
      "Ġthreat": 5310,
      "day": 5311,
      "ĠHuman": 5312,
      "Ġmatrix": 5313,
      "Ġ==============================================================================": 5314,
      "ĠâĪĺ": 5315,
      "Ġmatching": 5316,
      "Ġcompletion": 5317,
      "âķĲâķĲâķĲâķĲâķĲâķĲâķĲâķĲ": 5318,
      "LECTUAL": 5319,
      "INSURANCE": 5320,
      "Ġrestriction": 5321,
      "ALYSIS": 5322,
      "ĠGOVERNANCE": 5323,
      "INTELLECTUAL": 5324,
      "Agent": 5325,
      "ABLE": 5326,
      "epochs": 5327,
      "tss": 5328,
      "ulf": 5329,
      "icip": 5330,
      "ĠData": 5331,
      "ĠAT": 5332,
      "except": 5333,
      "quot": 5334,
      "aily": 5335,
      "Ġsepar": 5336,
      "ained": 5337,
      "oci": 5338,
      "crep": 5339,
      "Ġprecision": 5340,
      "ownloads": 5341,
      "nection": 5342,
      "Ġneeded": 5343,
      "Ġservice": 5344,
      "cycles": 5345,
      "Ġâī¥": 5346,
      "ĠCorporate": 5347,
      "Structured": 5348,
      "riteria": 5349,
      "THRESH": 5350,
      "enesis": 5351,
      "VEN": 5352,
      "]):": 5353,
      "cp": 5354,
      "mall": 5355,
      "Ġdoc": 5356,
      "child": 5357,
      "Ġproduction": 5358,
      "Ġmetric": 5359,
      "ampoo": 5360,
      "amera": 5361,
      "ocal": 5362,
      "reement": 5363,
      "gradient": 5364,
      "Chat": 5365,
      "auto": 5366,
      "GRACE": 5367,
      "attice": 5368,
      "ĠDisplay": 5369,
      "âĢ¢": 5370,
      "dequate": 5371,
      "indicators": 5372,
      "Element": 5373,
      "PAR": 5374,
      "]\",": 5375,
      "cf": 5376,
      "(\"_": 5377,
      "Ġdrift": 5378,
      "Ġprinciples": 5379,
      "ĠSTA": 5380,
      "Ġstrength": 5381,
      "ationship": 5382,
      "Ġgrace": 5383,
      "ivine": 5384,
      "party": 5385,
      "Convert": 5386,
      "reserve": 5387,
      "ATED": 5388,
      "ĠComplaint": 5389,
      "generator": 5390,
      "sessions": 5391,
      "})\"": 5392,
      "Ġserial": 5393,
      "Ġhtt": 5394,
      "PCT": 5395,
      "bad": 5396,
      "fd": 5397,
      "llama": 5398,
      "optim": 5399,
      "pid": 5400,
      "Ġrele": 5401,
      "Ġaverage": 5402,
      "Ġprinciple": 5403,
      "Ġdelta": 5404,
      "changes": 5405,
      "ĠER": 5406,
      "ismiss": 5407,
      "ĠWh": 5408,
      "ousing": 5409,
      "Ġquality": 5410,
      "Ġbackground": 5411,
      "percentage": 5412,
      "Ġtransition": 5413,
      "Ġwritten": 5414,
      "Health": 5415,
      ".']": 5416,
      "67": 5417,
      "begin": 5418,
      "rive": 5419,
      "itation": 5420,
      "itative": 5421,
      "iform": 5422,
      "Ġren": 5423,
      "Ġdist": 5424,
      "Ġwidth": 5425,
      "Ġenforced": 5426,
      "agram": 5427,
      "ITAL": 5428,
      "ailability": 5429,
      "precision": 5430,
      "Ġcause": 5431,
      "Ġthresholds": 5432,
      "spect": 5433,
      "dividual": 5434,
      "Metrics": 5435,
      "Ġdocumented": 5436,
      "Ġmethodology": 5437,
      "ĠQuantum": 5438,
      "Ġrepresentation": 5439,
      "BER": 5440,
      "window": 5441,
      "analyzer": 5442,
      "annual": 5443,
      "Ġfn": 5444,
      "del": 5445,
      "Ġsoul": 5446,
      "ĠTool": 5447,
      "ĠCurrent": 5448,
      "ĠCrusader": 5449,
      "ĠAC": 5450,
      "district": 5451,
      "ALISM": 5452,
      "prov": 5453,
      "Ġ</": 5454,
      "Ġcomputed": 5455,
      "ixel": 5456,
      "principle": 5457,
      "itional": 5458,
      "Ġpost": 5459,
      "overnment": 5460,
      "vereign": 5461,
      "span": 5462,
      "urtain": 5463,
      "ISTRY": 5464,
      "ymbol": 5465,
      "Dep": 5466,
      "guard": 5467,
      "jurisdiction": 5468,
      "rb": 5469,
      "rary": 5470,
      "tt": 5471,
      "stop": 5472,
      "Ġcandidates": 5473,
      "edges": 5474,
      "Ġnatural": 5475,
      "Ġcomplexity": 5476,
      "abric": 5477,
      "ĠRa": 5478,
      "Ġintent": 5479,
      "ĠOver": 5480,
      "Ġ24": 5481,
      "ĠGrid": 5482,
      "textbf": 5483,
      "Context": 5484,
      "Ġalready": 5485,
      "clear": 5486,
      "Ġrequirement": 5487,
      "ĠParse": 5488,
      "ĠLawvere": 5489,
      "Ġflags": 5490,
      "Ġscores": 5491,
      "Ġscope": 5492,
      "ĠTRAINING": 5493,
      "CRE": 5494,
      "DOCUM": 5495,
      "Sub": 5496,
      "][": 5497,
      "ĊĊĠĠĠĠĠĠĠĠĠĠĠĠĠĠĠĠĠĠĠĠĠĠĠ": 5498,
      "segment": 5499,
      "itnes": 5500,
      "ilon": 5501,
      "Ġstrategy": 5502,
      "============================": 5503,
      "ĠMissing": 5504,
      "REPORT": 5505,
      "Ġhardware": 5506,
      "Ġcontra": 5507,
      "composition": 5508,
      "transition": 5509,
      "ĠMinimal": 5510,
      "34": 5511,
      "Implementation": 5512,
      "hal": 5513,
      "Ġ\",": 5514,
      "ĠClean": 5515,
      "cls": 5516,
      "ured": 5517,
      "Ġtokens": 5518,
      "ERV": 5519,
      "amount": 5520,
      "ersist": 5521,
      "ĠContent": 5522,
      "Ġalpha": 5523,
      "locity": 5524,
      "QUIRE": 5525,
      "Compute": 5526,
      "Unknown": 5527,
      "preservation": 5528,
      "ferential": 5529,
      "embeddings": 5530,
      "approved": 5531,
      "Ġpadding": 5532,
      "allel": 5533,
      "reen": 5534,
      "Ġfunctor": 5535,
      "inte": 5536,
      "idity": 5537,
      "cost": 5538,
      "(\"*.": 5539,
      "Ġbiblical": 5540,
      "ĠAss": 5541,
      "ĠALL": 5542,
      "Ġresource": 5543,
      "004": 5544,
      "onement": 5545,
      "Ġchecking": 5546,
      "Ġprotected": 5547,
      "Ġasdict": 5548,
      "Ġheader": 5549,
      "FAULT": 5550,
      "Ġshutil": 5551,
      "Complete": 5552,
      "Ġworking": 5553,
      "PUT": 5554,
      "Analyzer": 5555,
      "Ġtrained": 5556,
      "Ġproblem": 5557,
      "lish": 5558,
      "ĠERROR": 5559,
      "Biblical": 5560,
      "_%": 5561,
      "ices": 5562,
      "tag": 5563,
      "tailed": 5564,
      "zard": 5565,
      "income": 5566,
      "les": 5567,
      "Ġfan": 5568,
      "dered": 5569,
      "Ġetc": 5570,
      "ĠSto": 5571,
      "Ġwindow": 5572,
      "ardens": 5573,
      "protocol": 5574,
      "ackup": 5575,
      "Ġalignment": 5576,
      "lasticity": 5577,
      "chains": 5578,
      "Atomic": 5579,
      "package": 5580,
      "Ġpayload": 5581,
      "ximation": 5582,
      "THRESHOLD": 5583,
      "IR": 5584,
      "Manifest": 5585,
      "Non": 5586,
      "ared": 5587,
      "cing": 5588,
      "tuple": 5589,
      "Ġkeys": 5590,
      "ativity": 5591,
      "Ġ{',": 5592,
      "unte": 5593,
      "ĠCOMM": 5594,
      "Ġdesign": 5595,
      "Ġrank": 5596,
      "Ġcost": 5597,
      "izes": 5598,
      "ĠMat": 5599,
      "Ġhandler": 5600,
      "Ġ===": 5601,
      "Ġanchor": 5602,
      "shared": 5603,
      "ĠâľĹ": 5604,
      "ĠREAD": 5605,
      "completion": 5606,
      "sole": 5607,
      "ĠWorkflow": 5608,
      "Ġfrozenset": 5609,
      "adigm": 5610,
      "Imp": 5611,
      "PTION": 5612,
      "iver": 5613,
      "option": 5614,
      "ĠĠĊĠĠ": 5615,
      "Ġfacility": 5616,
      "Ġpe": 5617,
      "async": 5618,
      "utility": 5619,
      "Ġabo": 5620,
      "ĠClaim": 5621,
      "jected": 5622,
      "TEN": 5623,
      "ĠISO": 5624,
      "professional": 5625,
      "oundness": 5626,
      "Stat": 5627,
      "RATE": 5628,
      "ĠAnalyze": 5629,
      "Ġontology": 5630,
      "ocation": 5631,
      "ĠCore": 5632,
      "ĠEnforcement": 5633,
      "ðŁļ": 5634,
      "Ġcorrespondence": 5635,
      "Ġminutes": 5636,
      "Ġmaintenance": 5637,
      "ĠChristlikeness": 5638,
      "Analyze": 5639,
      "Ġidentical": 5640,
      "problem": 5641,
      "Ġjustification": 5642,
      "morphisms": 5643,
      "JSONDecodeError": 5644,
      "havior": 5645,
      "Ġabove": 5646,
      "%(": 5647,
      "Identity": 5648,
      "JU": 5649,
      "Pipeline": 5650,
      "hance": 5651,
      "ook": 5652,
      "si": 5653,
      "})\",": 5654,
      "Ġge": 5655,
      "allocated": 5656,
      "anch": 5657,
      "Ġfederal": 5658,
      "arantine": 5659,
      "Ġrepair": 5660,
      "cover": 5661,
      "Ġopt": 5662,
      "exact": 5663,
      "aby": 5664,
      "uplic": 5665,
      "ĠNon": 5666,
      "REVIEW": 5667,
      "Ġguarante": 5668,
      "RAPH": 5669,
      "tox": 5670,
      "matic": 5671,
      "OGRAPH": 5672,
      "theo": 5673,
      "UNKNOWN": 5674,
      "Ġyou": 5675,
      "ATOR": 5676,
      "template": 5677,
      "ISO": 5678,
      "ometric": 5679,
      "Ġcycles": 5680,
      "Ġdependency": 5681,
      "restricted": 5682,
      "22": 5683,
      "Ar": 5684,
      "Date": 5685,
      "Demonstrate": 5686,
      "Implements": 5687,
      "Spec": 5688,
      "Scan": 5689,
      "VO": 5690,
      "][\"": 5691,
      "but": 5692,
      "itch": 5693,
      "Ġcryptographic": 5694,
      "Ġemp": 5695,
      "uld": 5696,
      "(\"[": 5697,
      "Ġbody": 5698,
      "igence": 5699,
      "igital": 5700,
      "ĠEach": 5701,
      "REDA": 5702,
      "checker": 5703,
      "forgiveness": 5704,
      "ðŁĴ": 5705,
      "Testing": 5706,
      "IFEST": 5707,
      "Ġprobability": 5708,
      "ĠDATA": 5709,
      "Ġmsg": 5710,
      "crepancy": 5711,
      "REDACTED": 5712,
      "((\"": 5713,
      "Action": 5714,
      "PON": 5715,
      "PEC": 5716,
      "enz": 5717,
      "sel": 5718,
      "sem": 5719,
      "ĠTrace": 5720,
      "Ġdep": 5721,
      "iler": 5722,
      "ĠSpe": 5723,
      "imary": 5724,
      "ONAL": 5725,
      "diagnostics": 5726,
      "Ġ201": 5727,
      "epistemic": 5728,
      "Ġcomputation": 5729,
      "keyword": 5730,
      "alyzed": 5731,
      "executable": 5732,
      "temporal": 5733,
      "Ġscripts": 5734,
      "omega": 5735,
      "Ġauthor": 5736,
      "Generator": 5737,
      "Ġaccessible": 5738,
      "toxicity": 5739,
      "'\")": 5740,
      "Hash": 5741,
      "Memory": 5742,
      "blueprint": 5743,
      "cat": 5744,
      "cred": 5745,
      "snapshot": 5746,
      "}_": 5747,
      "Â°": 5748,
      "âĦ": 5749,
      "Ġfully": 5750,
      "aring": 5751,
      "Ġage": 5752,
      "Ġblueprint": 5753,
      "ĠSer": 5754,
      "ĠSkip": 5755,
      "impossibility": 5756,
      "Ġmer": 5757,
      "Ġ18": 5758,
      "ants": 5759,
      "Ġgot": 5760,
      "ĠInitial": 5761,
      "shutdown": 5762,
      "Ġsubstitution": 5763,
      "prior": 5764,
      "directories": 5765,
      "Registry": 5766,
      "Threshold": 5767,
      "ĠTheologicalConstraint": 5768,
      "ĠArticle": 5769,
      "cursive": 5770,
      "occurrence": 5771,
      "53": 5772,
      "FUL": 5773,
      "]\"": 5774,
      "dro": 5775,
      "osite": 5776,
      "Â·": 5777,
      "anel": 5778,
      "Ġfra": 5779,
      "ĠAir": 5780,
      "Ġwra": 5781,
      "timeout": 5782,
      "ĊĊĠ": 5783,
      "queries": 5784,
      "Ġprov": 5785,
      "Ġleak": 5786,
      "Ġlacks": 5787,
      "Ġallow": 5788,
      "Ġalgebra": 5789,
      "pretrained": 5790,
      "Ġmodules": 5791,
      "Ġ64": 5792,
      "Compliance": 5793,
      "ĠIDs": 5794,
      "Ġfiling": 5795,
      "SHIP": 5796,
      ".,": 5797,
      "90": 5798,
      "Map": 5799,
      "Tree": 5800,
      "baby": 5801,
      "mens": 5802,
      "Ġtolerance": 5803,
      "icro": 5804,
      "ssions": 5805,
      "ĠAb": 5806,
      "imon": 5807,
      "ĠRES": 5808,
      "rib": 5809,
      "Ġhidden": 5810,
      "Ġautom": 5811,
      "versations": 5812,
      "ĠDetect": 5813,
      "ATON": 5814,
      "Ġcapabilities": 5815,
      "Ġready": 5816,
      "Ġuniverse": 5817,
      "ĠOntological": 5818,
      "Ġindicator": 5819,
      "rigerator": 5820,
      "BM": 5821,
      "Ph": 5822,
      "SC": 5823,
      "Space": 5824,
      "Types": 5825,
      "nm": 5826,
      "Ġ\"âĿĮ": 5827,
      "role": 5828,
      "hell": 5829,
      "Ġexcl": 5830,
      "ĠLOC": 5831,
      "ĠLayer": 5832,
      "']:": 5833,
      "):\")": 5834,
      "ordination": 5835,
      "Ġhead": 5836,
      "gramm": 5837,
      "Ġregister": 5838,
      "Ġtemporal": 5839,
      "mathic": 5840,
      "postasis": 5841,
      "PSY": 5842,
      "ĠÏĨ": 5843,
      "Var": 5844,
      "categories": 5845,
      "mimicry": 5846,
      "squ": 5847,
      "Ġlocation": 5848,
      "invalid": 5849,
      "Ġ\"/": 5850,
      "Ġfind": 5851,
      "()]": 5852,
      "iling": 5853,
      "ush": 5854,
      "estimate": 5855,
      "formula": 5856,
      "Ġtimedelta": 5857,
      "amil": 5858,
      "contract": 5859,
      "Ġnames": 5860,
      "Ġmaint": 5861,
      "reating": 5862,
      "Ġneed": 5863,
      "Logos": 5864,
      "Ġphysical": 5865,
      "PLES": 5866,
      "supplier": 5867,
      "Ġcls": 5868,
      "preserves": 5869,
      "ĠMaximum": 5870,
      "allucination": 5871,
      "==============================": 5872,
      "WORK": 5873,
      "effort": 5874,
      "gation": 5875,
      "table": 5876,
      "warfare": 5877,
      "enforce": 5878,
      "Ġsamples": 5879,
      "ĠTo": 5880,
      "ĠCLI": 5881,
      "TIZ": 5882,
      "'],": 5883,
      "ely": 5884,
      "remove": 5885,
      "Ġanalyzer": 5886,
      "pai": 5887,
      "ĠGit": 5888,
      "Ġcontroller": 5889,
      "Ġdistribution": 5890,
      "istration": 5891,
      "dicts": 5892,
      "causality": 5893,
      "Ġapplied": 5894,
      "Ġoverride": 5895,
      "LIM": 5896,
      "placeholder": 5897,
      "fixes": 5898,
      "UTPUT": 5899,
      "ĠPrint": 5900,
      "rovement": 5901,
      "petition": 5902,
      "\"âļłï¸ı": 5903,
      ":\\": 5904,
      "Merkle": 5905,
      "Yeshua": 5906,
      "gain": 5907,
      "inf": 5908,
      "Ġcat": 5909,
      "arr": 5910,
      "Ġtx": 5911,
      "ury": 5912,
      "Ġsol": 5913,
      "Ġsimple": 5914,
      "Ġinstruction": 5915,
      "ĠPerm": 5916,
      "iming": 5917,
      "Ġwardens": 5918,
      "ĠImplementation": 5919,
      "Ġthen": 5920,
      "essage": 5921,
      "EDER": 5922,
      "Ġshift": 5923,
      "**:": 5924,
      "effectiveness": 5925,
      "markdown": 5926,
      "Ġphases": 5927,
      "Authority": 5928,
      "Ġmultiple": 5929,
      "NotFound": 5930,
      "IZATION": 5931,
      "volume": 5932,
      "ismissal": 5933,
      "NotFoundError": 5934,
      "Part": 5935,
      "Python": 5936,
      "PUS": 5937,
      "]],": 5938,
      "ee": 5939,
      "environment": 5940,
      "Ġclear": 5941,
      "arness": 5942,
      "Ġreplay": 5943,
      "Ġregex": 5944,
      "Ġreproducible": 5945,
      "Ġborder": 5946,
      "ĠDAG": 5947,
      "ĠSec": 5948,
      "ĠAuth": 5949,
      "consequence": 5950,
      "accept": 5951,
      "ĠNe": 5952,
      "ĠFalsification": 5953,
      "REA": 5954,
      "REST": 5955,
      "counting": 5956,
      "Ġshutdown": 5957,
      "Exception": 5958,
      "Ġprevent": 5959,
      "Ġpressure": 5960,
      "display": 5961,
      "Ġnever": 5962,
      "Ġcreation": 5963,
      "calls": 5964,
      "Ġ\"\\\\": 5965,
      "Formatter": 5966,
      "\"**": 5967,
      "47": 5968,
      "500": 5969,
      "CS": 5970,
      "Code": 5971,
      "Lab": 5972,
      "MODEL": 5973,
      "df": 5974,
      "jor": 5975,
      "ometry": 5976,
      "Ġpage": 5977,
      "road": 5978,
      "enter": 5979,
      "urden": 5980,
      "ĠPolicy": 5981,
      "Ġstruct": 5982,
      "INTS": 5983,
      "Ġstorage": 5984,
      "Ġcheckpoint": 5985,
      "STAT": 5986,
      "ĠExit": 5987,
      "SSI": 5988,
      "ipal": 5989,
      "Ġautonomous": 5990,
      "Ġvalidated": 5991,
      "ĠĠĠĠĠĠĠĠĠ": 5992,
      "fully": 5993,
      "ĠStandards": 5994,
      "Ġsetup": 5995,
      "Ġapplication": 5996,
      "Ġwhat": 5997,
      "commitment": 5998,
      "utilization": 5999,
      "Canonical": 6000,
      "Ġsemantic": 6001,
      "66": 6002,
      "DO": 6003,
      "basic": 6004,
      "buffer": 6005,
      "cmd": 6006,
      "uded": 6007,
      "Ġupper": 6008,
      "ĠCRI": 6009,
      "Ġlarge": 6010,
      "ĠMark": 6011,
      "PARATION": 6012,
      "Ġleg": 6013,
      ")}\"],": 6014,
      "cular": 6015,
      "ĠSystems": 6016,
      "ĠFileNotFoundError": 6017,
      "iolations": 6018,
      "Ġsignature": 6019,
      "Ġloading": 6020,
      "parsers": 6021,
      "Ġendpoint": 6022,
      "REGISTRY": 6023,
      ":,}": 6024,
      "THEMATICAL": 6025,
      "latency": 6026,
      "Autom": 6027,
      "DOCUMENTED": 6028,
      "08": 6029,
      "Ne": 6030,
      "PEND": 6031,
      "dinal": 6032,
      "ima": 6033,
      "oice": 6034,
      "solution": 6035,
      "inst": 6036,
      "inference": 6037,
      "anchor": 6038,
      "Ġcrusader": 6039,
      "Ġrest": 6040,
      "Ġsal": 6041,
      "Ġiff": 6042,
      "tem": 6043,
      "TICE": 6044,
      "ĠIMPLE": 6045,
      "agency": 6046,
      "Ġreported": 6047,
      "603": 6048,
      "ĠConvert": 6049,
      "SError": 6050,
      "Ġidentifier": 6051,
      "radius": 6052,
      "calation": 6053,
      "Ġcompleteness": 6054,
      "Ġembeddings": 6055,
      "ĠXML": 6056,
      "ĠDefault": 6057,
      "bottom": 6058,
      "ĠCapability": 6059,
      "ðĿĴ": 6060,
      "ause": 6061,
      "ele": 6062,
      "fusion": 6063,
      "orn": 6064,
      "Ġfollow": 6065,
      "Ġcpu": 6066,
      "Ġreduction": 6067,
      "Ġsin": 6068,
      "Ġsink": 6069,
      "Ġ[{": 6070,
      "Ġconnect": 6071,
      "ĠSigma": 6072,
      "charge": 6073,
      "TIS": 6074,
      "ĠVALIDATION": 6075,
      "Ġparams": 6076,
      "Ġ==============================================================": 6077,
      "1024": 6078,
      "Ġapplic": 6079,
      "Ġoperational": 6080,
      "Ġinitialization": 6081,
      "Ġreading": 6082,
      "ĠOnly": 6083,
      "Force": 6084,
      "Ġcrash": 6085,
      "Ġnetwork": 6086,
      "Ġcalibration": 6087,
      "satisfaction": 6088,
      "OGRAPHIC": 6089,
      "HOL": 6090,
      "]+": 6091,
      "cial": 6092,
      "ehicle": 6093,
      "suggest": 6094,
      "stream": 6095,
      "algorithm": 6096,
      "Ġpurpose": 6097,
      "Ġred": 6098,
      "Ġemb": 6099,
      "Ġinversion": 6100,
      "ĠPS": 6101,
      "ĠSimplified": 6102,
      "Ġwar": 6103,
      "__.": 6104,
      "ĠRem": 6105,
      "population": 6106,
      "TEX": 6107,
      "Ġhy": 6108,
      "STRU": 6109,
      "Ġautomation": 6110,
      "Ġradi": 6111,
      "pression": 6112,
      "ayesian": 6113,
      "ffected": 6114,
      "Ġcolumn": 6115,
      "Ġtempfile": 6116,
      "cedure": 6117,
      "media": 6118,
      "Ġextract": 6119,
      "haust": 6120,
      "Ġspecifications": 6121,
      "Ġestimated": 6122,
      "Ġspeaker": 6123,
      "Validator": 6124,
      "AML": 6125,
      "Causal": 6126,
      "Final": 6127,
      "IOUS": 6128,
      "PL": 6129,
      "fit": 6130,
      "king": 6131,
      "Ġurl": 6132,
      "Ġqueue": 6133,
      "eros": 6134,
      "less": 6135,
      "icon": 6136,
      "Ġsnapshot": 6137,
      "lain": 6138,
      "Ġoc": 6139,
      "thical": 6140,
      "Ġsto": 6141,
      "inear": 6142,
      "Ġgo": 6143,
      "Ġsegment": 6144,
      "issue": 6145,
      "Initial": 6146,
      "notice": 6147,
      "CHECK": 6148,
      "osis": 6149,
      "Ġhelper": 6150,
      "incipal": 6151,
      "transform": 6152,
      "beat": 6153,
      "specific": 6154,
      "Ġmanager": 6155,
      "Ġentity": 6156,
      "Ġparts": 6157,
      "urtle": 6158,
      "BOUND": 6159,
      "Execute": 6160,
      "ĠHealth": 6161,
      "Ġclamp": 6162,
      "Ġacceptable": 6163,
      "requirements": 6164,
      "folders": 6165,
      "echnical": 6166,
      "\"âľĹ": 6167,
      "Act": 6168,
      "Functor": 6169,
      "Gate": 6170,
      "Sign": 6171,
      "due": 6172,
      "np": 6173,
      "nex": 6174,
      "ring": 6175,
      "}_{": 6176,
      "leb": 6177,
      "Ġcs": 6178,
      "Ġsk": 6179,
      "ulations": 6180,
      "(\"%": 6181,
      "Ġconn": 6182,
      "ĠDec": 6183,
      "cli": 6184,
      "Ġextra": 6185,
      "REN": 6186,
      "owers": 6187,
      "remise": 6188,
      "DAYS": 6189,
      "ictionary": 6190,
      "denominator": 6191,
      "Uni": 6192,
      "clared": 6193,
      "MEDIA": 6194,
      "Ġmethods": 6195,
      "simulation": 6196,
      "Orthogonal": 6197,
      "Ġgateway": 6198,
      "THEMATICS": 6199,
      "ordinate": 6200,
      "43": 6201,
      "FEDER": 6202,
      "Save": 6203,
      "ULA": 6204,
      "sorted": 6205,
      "xml": 6206,
      "Ġ----": 6207,
      "ond": 6208,
      "Ġfin": 6209,
      "Ġfly": 6210,
      "Ġfree": 6211,
      "Ġprag": 6212,
      "aration": 6213,
      "Ġtk": 6214,
      "Ġreferences": 6215,
      "Ġinfo": 6216,
      "ĠCampaign": 6217,
      "getattr": 6218,
      "physical": 6219,
      "ĠâĨ": 6220,
      "005": 6221,
      "ĠIM": 6222,
      "lihood": 6223,
      "checkpoint": 6224,
      "ENSHIP": 6225,
      "kelihood": 6226,
      "Ġ_,": 6227,
      "ĠInput": 6228,
      "ĠUT": 6229,
      "Ġactivation": 6230,
      "falsifiability": 6231,
      "Ġyield": 6232,
      "Ġscale": 6233,
      "ATCH": 6234,
      "capabilities": 6235,
      "Ġoutside": 6236,
      "Ġreasoning": 6237,
      "universe": 6238,
      "similarity": 6239,
      "Ġwarnings": 6240,
      "Starting": 6241,
      "ighborhood": 6242,
      "TIZENSHIP": 6243,
      "Ġpragma": 6244,
      "Ac": 6245,
      "BY": 6246,
      "fm": 6247,
      "gments": 6248,
      "ilo": 6249,
      "tier": 6250,
      "Ġ\"|": 6251,
      "deg": 6252,
      "hether": 6253,
      "istleb": 6254,
      "ĠFIL": 6255,
      "ĠDictionary": 6256,
      "ĠSp": 6257,
      "convergence": 6258,
      "threat": 6259,
      "postatic": 6260,
      "udicial": 6261,
      "ĠReal": 6262,
      "ĠRecord": 6263,
      "PARA": 6264,
      "CHALCEDON": 6265,
      "Ġfloats": 6266,
      "HABE": 6267,
      "Expected": 6268,
      "VERIFIED": 6269,
      "Ġinternal": 6270,
      "weights": 6271,
      "grant": 6272,
      "Ġmonitor": 6273,
      "Ġformula": 6274,
      "Ġextension": 6275,
      "Ġmanagement": 6276,
      "soph": 6277,
      "grounding": 6278,
      "efficiency": 6279,
      "ĠINVARIAN": 6280,
      "ynthesis": 6281,
      "Users": 6282,
      "POWERS": 6283,
      "ĠComplaintAudit": 6284,
      "gramming": 6285,
      "AV": 6286,
      "Aidor": 6287,
      "DH": 6288,
      "Dec": 6289,
      "LIG": 6290,
      "TO": 6291,
      "TT": 6292,
      "dra": 6293,
      "hour": 6294,
      "send": 6295,
      "vs": 6296,
      "ving": 6297,
      "onest": 6298,
      "Ġremo": 6299,
      "Ġinfinite": 6300,
      "(\"âļłï¸ı": 6301,
      "Ġnan": 6302,
      "ĠCross": 6303,
      "ONLY": 6304,
      "getLogger": 6305,
      "progress": 6306,
      "Ġlogged": 6307,
      "Ġcomparison": 6308,
      "agonal": 6309,
      "SET": 6310,
      "Ġdistrict": 6311,
      "month": 6312,
      "monitor": 6313,
      "corded": 6314,
      "Ġpossible": 6315,
      "Detector": 6316,
      "SAMPLE": 6317,
      "Ġinitialize": 6318,
      "Ġentropy": 6319,
      "ynamics": 6320,
      "Ġsimilarity": 6321,
      "âĤģ": 6322,
      "Ġalerts": 6323,
      "ymmetric": 6324,
      "Law": 6325,
      "Ġhttp": 6326,
      "58": 6327,
      ":\"": 6328,
      "Da": 6329,
      "JUS": 6330,
      "Placeholder": 6331,
      "Use": 6332,
      "cra": 6333,
      "tx": 6334,
      "writ": 6335,
      "alias": 6336,
      "dead": 6337,
      "roma": 6338,
      "held": 6339,
      "unch": 6340,
      "Ġinference": 6341,
      "ilit": 6342,
      "ilization": 6343,
      "ĠDes": 6344,
      "umidity": 6345,
      "Ġstd": 6346,
      "paw": 6347,
      "ĠAnnex": 6348,
      "=[]": 6349,
      "Ġparameter": 6350,
      "reporting": 6351,
      "ECON": 6352,
      "Ġfunctionality": 6353,
      "ADER": 6354,
      "internal": 6355,
      "Ġrelation": 6356,
      "Ġpairs": 6357,
      "Ġinstances": 6358,
      "MEDIUM": 6359,
      "lapse": 6360,
      "tributes": 6361,
      "2009": 6362,
      "skipped": 6363,
      "ĠDeployment": 6364,
      "ĠEXECUTION": 6365,
      "QUIRED": 6366,
      "JUDIC": 6367,
      "ilosoph": 6368,
      "48": 6369,
      "MAL": 6370,
      "Wh": 6371,
      "fork": 6372,
      "osed": 6373,
      "Ġloc": 6374,
      "oning": 6375,
      "represent": 6376,
      "Ġfont": 6377,
      "itive": 6378,
      "Ġpy": 6379,
      "Ġtensor": 6380,
      "()):": 6381,
      "Ġbit": 6382,
      "andwidth": 6383,
      "\"]}": 6384,
      "jective": 6385,
      "REE": 6386,
      "Ġprop": 6387,
      "Ġcontraction": 6388,
      "ĠBase": 6389,
      "ART": 6390,
      "ĠInversion": 6391,
      "Ġ36": 6392,
      "ĠUS": 6393,
      "Ġhex": 6394,
      "Ġfilesystem": 6395,
      "notes": 6396,
      "(\"=\"*": 6397,
      "Component": 6398,
      "mathcal": 6399,
      "Ġtranscript": 6400,
      "workflows": 6401,
      "findall": 6402,
      "Primitive": 6403,
      "ĠRaises": 6404,
      "%\",": 6405,
      "49": 6406,
      ":]": 6407,
      "By": 6408,
      "lu": 6409,
      "purpose": 6410,
      "tags": 6411,
      "{{": 6412,
      "Ġargument": 6413,
      "replay": 6414,
      "orchestration": 6415,
      "room": 6416,
      "integrated": 6417,
      "cogn": 6418,
      "Ġbalance": 6419,
      "ĠTemp": 6420,
      "Ġdeleg": 6421,
      "terms": 6422,
      "izing": 6423,
      "ĠMAIN": 6424,
      "extension": 6425,
      "Ġalgorithm": 6426,
      "ĠSystemMode": 6427,
      "ashboard": 6428,
      "ĠOrth": 6429,
      "Ġcommitment": 6430,
      "Ġdoesn": 6431,
      "âĤĤ": 6432,
      "IZED": 6433,
      "Ġcalculation": 6434,
      "ĠINTEGRATION": 6435,
      "paired": 6436,
      "Implement": 6437,
      "Over": 6438,
      "Tool": 6439,
      "dle": 6440,
      "mtime": 6441,
      "atic": 6442,
      "oll": 6443,
      "Ġsome": 6444,
      "Ġsuper": 6445,
      "Ġsubject": 6446,
      "Ġbest": 6447,
      "Ġbasic": 6448,
      "ĠCANONICAL": 6449,
      "Ġdec": 6450,
      "Ġexplan": 6451,
      "ithub": 6452,
      "ificate": 6453,
      "computed": 6454,
      "mbig": 6455,
      "ĠHandling": 6456,
      "ĠContext": 6457,
      "angle": 6458,
      "cursion": 6459,
      "Ġyour": 6460,
      "healthy": 6461,
      "CORE": 6462,
      "frac": 6463,
      "manual": 6464,
      "AuditStatus": 6465,
      "Ġtrainer": 6466,
      "ĠResponse": 6467,
      "Truth": 6468,
      "certainty": 6469,
      "ðŁİ¯": 6470,
      "Ġdimensions": 6471,
      "ĠSimulate": 6472,
      "PSYCH": 6473,
      "Language": 6474,
      "Warning": 6475,
      "Ġingredient": 6476,
      "atched": 6477,
      "independence": 6478,
      "semb": 6479,
      "Ġpredicate": 6480,
      "cell": 6481,
      "Ġretri": 6482,
      "Ġelapsed": 6483,
      "(\"âĢ¢": 6484,
      "Ġdeception": 6485,
      "resource": 6486,
      "ptime": 6487,
      "Ġmost": 6488,
      "ĠAction": 6489,
      "confir": 6490,
      "vial": 6491,
      "vices": 6492,
      "']}\",": 6493,
      "hashlib": 6494,
      "):.": 6495,
      "proportion": 6496,
      "Ġprogress": 6497,
      "Ġcontract": 6498,
      "quire": 6499,
      "Ġcompatibility": 6500,
      "forces": 6501,
      "ĠComplet": 6502,
      "penalty": 6503,
      "preview": 6504,
      "care": 6505,
      "Ġcommon": 6506,
      "Ġxact": 6507,
      "Ġxml": 6508,
      "nections": 6509,
      "operational": 6510,
      "trail": 6511,
      "ORATIVE": 6512,
      "Ġloader": 6513,
      "chaton": 6514,
      "Ġ1223": 6515,
      "ENDMENT": 6516,
      "unique": 6517,
      "âĤĢ": 6518,
      "ensitive": 6519,
      "HOOD": 6520,
      "Ġrows": 6521,
      "ĠPerformance": 6522,
      "Ġarchitecture": 6523,
      "DIGITAL": 6524,
      "MANIFEST": 6525,
      "Ġplaceholders": 6526,
      "AB": 6527,
      "Curtain": 6528,
      "Of": 6529,
      "Update": 6530,
      "dfs": 6531,
      "finement": 6532,
      "simple": 6533,
      "ĊĠĠĠĠĠĠĠĠĠ": 6534,
      "style": 6535,
      "mac": 6536,
      "Ġbar": 6537,
      "Ġdest": 6538,
      "ĠSTRU": 6539,
      "impact": 6540,
      "ĠAmendment": 6541,
      "immediate": 6542,
      "INFORMATION": 6543,
      "times": 6544,
      "ĠâŁ": 6545,
      "prop": 6546,
      "Ġintegrated": 6547,
      "ĠGod": 6548,
      "Ġchanged": 6549,
      "Ġvol": 6550,
      "SEPARATION": 6551,
      "commod": 6552,
      "records": 6553,
      "inputs": 6554,
      "ĠParameters": 6555,
      "commands": 6556,
      "DUATE": 6557,
      "AMENDMENT": 6558,
      "ĠCHECK": 6559,
      "ðŁĶį": 6560,
      "Ġsatisfy": 6561,
      "unication": 6562,
      "JUDICIAL": 6563,
      "PSYCHOLOGY": 6564,
      "/{": 6565,
      "=(\"": 6566,
      "GER": 6567,
      "Session": 6568,
      "sa": 6569,
      "arter": 6570,
      "isions": 6571,
      "Ġbec": 6572,
      "ĠPower": 6573,
      "ĠAR": 6574,
      "antics": 6575,
      "ryover": 6576,
      "activation": 6577,
      "ĠGame": 6578,
      "ĠBe": 6579,
      "Ġ32": 6580,
      "Input": 6581,
      "reported": 6582,
      "Read": 6583,
      "termination": 6584,
      "Ġitself": 6585,
      "AGENT": 6586,
      "close": 6587,
      "filter": 6588,
      "Ġtheorems": 6589,
      "ĠFAILURE": 6590,
      "ĠPASSED": 6591,
      "ĠContinu": 6592,
      "Ġsatisfies": 6593,
      "Ġshows": 6594,
      "udies": 6595,
      "hanced": 6596,
      "arrative": 6597,
      "drawal": 6598,
      "EE": 6599,
      "EPA": 6600,
      "HUM": 6601,
      "Simple": 6602,
      "azard": 6603,
      "break": 6604,
      "dt": 6605,
      "evaluate": 6606,
      "literal": 6607,
      "sanit": 6608,
      "ze": 6609,
      "org": 6610,
      "enari": 6611,
      "icer": 6612,
      "Ġsolution": 6613,
      "edback": 6614,
      "Ġinspection": 6615,
      "ĠSafe": 6616,
      "dictions": 6617,
      "Ġâļłï¸ı": 6618,
      "ĠRed": 6619,
      "pore": 6620,
      "arian": 6621,
      "rip": 6622,
      "ĠMaster": 6623,
      "ĠOff": 6624,
      "ENG": 6625,
      "ENER": 6626,
      "ĠUV": 6627,
      "Ġ[]):": 6628,
      "material": 6629,
      "initions": 6630,
      "positions": 6631,
      "DEEPSEEK": 6632,
      "Ġsubparsers": 6633,
      "CITIZENSHIP": 6634,
      "Ġwhich": 6635,
      "Detect": 6636,
      "METH": 6637,
      "AILA": 6638,
      "Ġtemporary": 6639,
      "Ġrequested": 6640,
      "CORPUS": 6641,
      "Ġaggreg": 6642,
      "ĠTypeVar": 6643,
      "support": 6644,
      "ĠCombat": 6645,
      "comment": 6646,
      "Ġtuples": 6647,
      "ositional": 6648,
      "Ġinstalled": 6649,
      "2015": 6650,
      "Ġimplemented": 6651,
      "combined": 6652,
      "deploy": 6653,
      "Ġimmutable": 6654,
      "umpy": 6655,
      "HABEAS": 6656,
      "LU": 6657,
      "PRE": 6658,
      "ULE": 6659,
      "Usage": 6660,
      "bidden": 6661,
      "fallback": 6662,
      "pad": 6663,
      "Ġide": 6664,
      "inspection": 6665,
      "repr": 6666,
      "allot": 6667,
      "second": 6668,
      "anger": 6669,
      "rot": 6670,
      "Ġttk": 6671,
      "Ġrepe": 6672,
      "utory": 6673,
      "raduate": 6674,
      "Ġeffic": 6675,
      "ĠTY": 6676,
      "Ġreser": 6677,
      "RELIG": 6678,
      "ĠOb": 6679,
      "ENCE": 6680,
      "complaint": 6681,
      "ird": 6682,
      "maximal": 6683,
      "lene": 6684,
      "Ġtimezone": 6685,
      "Ġhashing": 6686,
      "creases": 6687,
      "Ġcausality": 6688,
      "Ġrelative": 6689,
      "trainer": 6690,
      "specs": 6691,
      "Ġfixes": 6692,
      "BILL": 6693,
      "area": 6694,
      "Ġestablished": 6695,
      "RESPON": 6696,
      "Ġterminal": 6697,
      "itizens": 6698,
      "ĠCRITICAL": 6699,
      "(-": 6700,
      "*\\": 6701,
      "06": 6702,
      "39": 6703,
      "AF": 6704,
      "CR": 6705,
      "COL": 6706,
      "Every": 6707,
      "Vector": 6708,
      "branch": 6709,
      "fre": 6710,
      "hz": 6711,
      "uation": 6712,
      "ĠĠĊĠĠĠ": 6713,
      "rev": 6714,
      "ctime": 6715,
      "Ġts": 6716,
      "Ġreality": 6717,
      "ĠPER": 6718,
      "ilib": 6719,
      "igin": 6720,
      "Ġguard": 6721,
      "Ġseparation": 6722,
      "Ġfalsifiability": 6723,
      "Ġbeing": 6724,
      "ĠConsent": 6725,
      "Ġunion": 6726,
      "ĠProb": 6727,
      "Ġyaml": 6728,
      "priate": 6729,
      "Ġzone": 6730,
      "Ġlevels": 6731,
      "Ġproduces": 6732,
      "FEDERALISM": 6733,
      "ilitary": 6734,
      "ilibri": 6735,
      ")(": 6736,
      ".\\": 6737,
      "Game": 6738,
      "John": 6739,
      "License": 6740,
      "]}\")": 6741,
      "bm": 6742,
      "equivalence": 6743,
      "net": 6744,
      "study": 6745,
      "Ġ\"\"),": 6746,
      "let": 6747,
      "Ġcur": 6748,
      "dem": 6749,
      "Ġrestrict": 6750,
      "Ġsent": 6751,
      "unlink": 6752,
      "lack": 6753,
      "ĠFrozen": 6754,
      "ulti": 6755,
      "ĠAc": 6756,
      "INTERN": 6757,
      "ORTH": 6758,
      "undle": 6759,
      "application": 6760,
      "Ġharm": 6761,
      "ampling": 6762,
      "ffold": 6763,
      "caffold": 6764,
      "Ġ------------------------------------------------------------------": 6765,
      "``,": 6766,
      "STER": 6767,
      "Ġobserved": 6768,
      "Ġobservations": 6769,
      "Ġdisk": 6770,
      "Theological": 6771,
      "iterations": 6772,
      "LOCK": 6773,
      "Ġresponses": 6774,
      "ETHICS": 6775,
      "quota": 6776,
      "Ġrender": 6777,
      "VOTING": 6778,
      "ECONOMIC": 6779,
      "Ass": 6780,
      "cum": 6781,
      "diff": 6782,
      "lin": 6783,
      "life": 6784,
      "multip": 6785,
      "pment": 6786,
      "rex": 6787,
      "ste": 6788,
      "enum": 6789,
      "security": 6790,
      "Ġcalculate": 6791,
      "arc": 6792,
      "mechanism": 6793,
      "entity": 6794,
      "iddle": 6795,
      "Ġepistemic": 6796,
      "Ġair": 6797,
      "Ġdue": 6798,
      "Ġbranch": 6799,
      "ĠTarget": 6800,
      "adow": 6801,
      "construction": 6802,
      "thread": 6803,
      "ancel": 6804,
      "Ġ22": 6805,
      "ĠHigh": 6806,
      "OME": 6807,
      "Ġruntime": 6808,
      "ĠÎł": 6809,
      "Ġspecified": 6810,
      "Ġcontinuous": 6811,
      "filing": 6812,
      "good": 6813,
      "Ġspeed": 6814,
      "Ġmultip": 6815,
      "ĠChatGPT": 6816,
      "Trained": 6817,
      "ĠRefrigerator": 6818,
      "unterex": 6819,
      "JUSTICE": 6820,
      "AILABLE": 6821,
      "RELIGIOUS": 6822,
      "59": 6823,
      "MOD": 6824,
      "RUN": 6825,
      "Ser": 6826,
      "Success": 6827,
      "cer": 6828,
      "ligation": 6829,
      "sor": 6830,
      "Ã¶": 6831,
      "inction": 6832,
      "reproducibility": 6833,
      "lease": 6834,
      "design": 6835,
      "Ġnull": 6836,
      "ĠClass": 6837,
      "Ġmass": 6838,
      "TIT": 6839,
      "ĠEU": 6840,
      "Ġprojection": 6841,
      "Ġprovides": 6842,
      "ANTS": 6843,
      ").__": 6844,
      "eward": 6845,
      "Ġheight": 6846,
      "DEFAULT": 6847,
      "Ġ500": 6848,
      "orever": 6849,
      "ĠEnsure": 6850,
      "ĠEnvironmental": 6851,
      "Ġcorrected": 6852,
      "Ġcorrections": 6853,
      "rong": 6854,
      "capital": 6855,
      "Ġwere": 6856,
      "127": 6857,
      "IGHBOR": 6858,
      "Apply": 6859,
      "NEIGHBOR": 6860,
      "MOBILITY": 6861,
      "Ġsuffix": 6862,
      "richment": 6863,
      "continuous": 6864,
      "RESTORATIVE": 6865,
      "Grid": 6866,
      "Human": 6867,
      "lity": 6868,
      "neg": 6869,
      "Ġctx": 6870,
      "ĠÃĹ": 6871,
      "aled": 6872,
      "des": 6873,
      "racted": 6874,
      "Ġconvergence": 6875,
      "imin": 6876,
      "changed": 6877,
      "Ġcopy": 6878,
      "__,": 6879,
      "sified": 6880,
      "udent": 6881,
      "ĠGB": 6882,
      "Ġsections": 6883,
      "Condition": 6884,
      "ĠCounter": 6885,
      "overned": 6886,
      "idelity": 6887,
      "``.": 6888,
      "LIBER": 6889,
      "ĠREPORT": 6890,
      "Ġimpact": 6891,
      "GET": 6892,
      "GEOGRAPHIC": 6893,
      "Ġderived": 6894,
      "Ġremaining": 6895,
      "sensitizer": 6896,
      "olymathic": 6897,
      "ĠLOGOS": 6898,
      "READY": 6899,
      "ĠAGAPE": 6900,
      "LIBERTY": 6901,
      "(*": 6902,
      "AUT": 6903,
      "CRO": 6904,
      "EMA": 6905,
      "Guard": 6906,
      "KENOSIS": 6907,
      "Tran": 6908,
      "YD": 6909,
      "benchmark": 6910,
      "gen": 6911,
      "lation": 6912,
      "mism": 6913,
      "}]": 6914,
      "}{": 6915,
      "}\"]": 6916,
      "lead": 6917,
      "Ġredu": 6918,
      "icode": 6919,
      "Ġinit": 6920,
      "ĠFe": 6921,
      "ĠFirst": 6922,
      "verifier": 6923,
      "endpoint": 6924,
      "INDIG": 6925,
      "updated": 6926,
      "arial": 6927,
      "ORITY": 6928,
      "ensus": 6929,
      "activ": 6930,
      "ENOUS": 6931,
      "Ġmemo": 6932,
      "etadata": 6933,
      "ĠGe": 6934,
      "ĠReturn": 6935,
      "compatible": 6936,
      "irical": 6937,
      "CHITE": 6938,
      "CIOLOGY": 6939,
      "transformation": 6940,
      "traps": 6941,
      "Ġotherwise": 6942,
      "localhost": 6943,
      "universal": 6944,
      "SOCIOLOGY": 6945,
      "}%\")": 6946,
      "Ġeffectiveness": 6947,
      "ymbolic": 6948,
      "Ġoptimization": 6949,
      "Ontological": 6950,
      "Ġproperly": 6951,
      "ĠLawvereMetric": 6952,
      "ĠStore": 6953,
      "NEIGHBORHOOD": 6954,
      "INDIGENOUS": 6955,
      "\"(?:": 6956,
      "33": 6957,
      "FIG": 6958,
      "Hel": 6959,
      "Llama": 6960,
      "hidden": 6961,
      "handle": 6962,
      "simplified": 6963,
      "enforced": 6964,
      "Ġpatent": 6965,
      "Ġpeano": 6966,
      "deps": 6967,
      "Ġtag": 6968,
      "mpot": 6969,
      "utic": 6970,
      "uniform": 6971,
      "Ġincomplete": 6972,
      "(\"*": 6973,
      "(\"##": 6974,
      "Ġday": 6975,
      "ĠFIX": 6976,
      "ĠTEXT": 6977,
      "imports": 6978,
      "Ġexclude": 6979,
      "ĠLocal": 6980,
      "ĠIII": 6981,
      "OREM": 6982,
      "applic": 6983,
      "Ġproposition": 6984,
      "Ġintell": 6985,
      "odus": 6986,
      "Ġhal": 6987,
      "ĠBOUND": 6988,
      "Ġchallenge": 6989,
      "ĠWindows": 6990,
      "...\"": 6991,
      "kenosis": 6992,
      "anglement": 6993,
      "OGONAL": 6994,
      "pret": 6995,
      "VERIFICATION": 6996,
      "Ġmatched": 6997,
      "hook": 6998,
      "Ġavoid": 6999,
      "divine": 7000,
      "Ġfeatures": 7001,
      "ĠConstraintSet": 7002,
      "ĠIntegrity": 7003,
      "Ġground": 7004,
      "ĠControl": 7005,
      "Command": 7006,
      "www": 7007,
      "Ġyears": 7008,
      "ĠATOMIC": 7009,
      "'.": 7010,
      "69": 7011,
      "Crusader": 7012,
      "Ob": 7013,
      "Script": 7014,
      "cip": 7015,
      "dom": 7016,
      "latform": 7017,
      "ĠĠĊĠĠĠĠĠĠĠĠĠĠĠĠĠĠĠĠĠĠĠĠĠĠĠ": 7018,
      "storage": 7019,
      "leaves": 7020,
      "Ġpure": 7021,
      "dec": 7022,
      "Ġsq": 7023,
      "()))": 7024,
      "----------": 7025,
      "ĠForensic": 7026,
      "adic": 7027,
      "ĠPublic": 7028,
      "ĠScript": 7029,
      "chie": 7030,
      "exe": 7031,
      "acle": 7032,
      "prog": 7033,
      "Ġproven": 7034,
      "Ġproposal": 7035,
      "Ġ21": 7036,
      "Ġhierarchy": 7037,
      "STANTS": 7038,
      "serial": 7039,
      "company": 7040,
      "oretic": 7041,
      "Ġ|\",": 7042,
      "CONSTRA": 7043,
      "ĠâĪĥ": 7044,
      "requests": 7045,
      "Ġclasses": 7046,
      "Ġcluster": 7047,
      "otonicity": 7048,
      "vehicles": 7049,
      "echo": 7050,
      "Ġlatest": 7051,
      "persona": 7052,
      "Extract": 7053,
      "hibited": 7054,
      "ulnerability": 7055,
      "TEXT": 7056,
      "AVAILABLE": 7057,
      "ilibrium": 7058,
      "INTERNATIONAL": 7059,
      "\"|": 7060,
      "Downloads": 7061,
      "Item": 7062,
      "SK": 7063,
      "TOOL": 7064,
      "TOK": 7065,
      "cise": 7066,
      "evaluation": 7067,
      "gagement": 7068,
      "kind": 7069,
      "win": 7070,
      "ÏĨ": 7071,
      "stic": 7072,
      "decid": 7073,
      "roken": 7074,
      "Ġinventory": 7075,
      "machine": 7076,
      "ĠCase": 7077,
      "ĠDO": 7078,
      "ĠAUDIT": 7079,
      "Ġoe": 7080,
      "Ġstop": 7081,
      "Ġtoo": 7082,
      "'])}": 7083,
      "ĠMeta": 7084,
      "ificant": 7085,
      "ĠOPER": 7086,
      "paces": 7087,
      "Ġenv": 7088,
      "601": 7089,
      "ĠĠĠĠĠĠĠĠĠĠ": 7090,
      "ĠYES": 7091,
      "ĠDetection": 7092,
      "FAILED": 7093,
      "Ġsubset": 7094,
      "instances": 7095,
      "collaboration": 7096,
      "Ġworks": 7097,
      "URCE": 7098,
      "baseline": 7099,
      "Ġcontinuity": 7100,
      "ĠRuntime": 7101,
      "riched": 7102,
      "Ġpoints": 7103,
      "existing": 7104,
      "âĪĢ": 7105,
      "ĠZero": 7106,
      "FORCEMENT": 7107,
      "authorized": 7108,
      "ugmented": 7109,
      "sembly": 7110,
      "Mat": 7111,
      "PEN": 7112,
      "Purpose": 7113,
      "Rep": 7114,
      "SOD": 7115,
      "We": 7116,
      "building": 7117,
      "hierarchy": 7118,
      "land": 7119,
      "lig": 7120,
      "vars": 7121,
      "Ġ;": 7122,
      "reliability": 7123,
      "ashes": 7124,
      "usive": 7125,
      "tex": 7126,
      "andoff": 7127,
      "ĠSulf": 7128,
      "client": 7129,
      "Ġdefined": 7130,
      "Ġhandle": 7131,
      "Ġencode": 7132,
      "answer": 7133,
      "Ġparadox": 7134,
      "Ġ45": 7135,
      "notification": 7136,
      "ĠWorld": 7137,
      "Ġalternative": 7138,
      "Ġatt": 7139,
      "Ġ===================================================================": 7140,
      "ĠYeshuaClaim": 7141,
      "Ġquantum": 7142,
      "Ġregistered": 7143,
      "inker": 7144,
      "aterial": 7145,
      "transcript": 7146,
      "Ġsimulated": 7147,
      "Ġedges": 7148,
      "Ġclosure": 7149,
      "ĠStructural": 7150,
      "Capability": 7151,
      "Ġinstall": 7152,
      "oolean": 7153,
      "adaptive": 7154,
      "PARTIAL": 7155,
      "/\",": 7156,
      "89": 7157,
      "?\\": 7158,
      "epoch": 7159,
      "ns": 7160,
      "ounded": 7161,
      "vac": 7162,
      "âģ": 7163,
      "ĠObject": 7164,
      "references": 7165,
      "Ġfa": 7166,
      "deleg": 7167,
      "ceed": 7168,
      "Ġinvestigation": 7169,
      "ĠFull": 7170,
      "ilgpt": 7171,
      "Ġ))": 7172,
      "chitecture": 7173,
      "'][:": 7174,
      "Ġenable": 7175,
      "Ġontological": 7176,
      "principles": 7177,
      "Ġpermit": 7178,
      "Ġcorrection": 7179,
      "Prob": 7180,
      "collection": 7181,
      "levels": 7182,
      "DeepSeek": 7183,
      "Ġmodified": 7184,
      "Ġbaseline": 7185,
      "AGAPE": 7186,
      "Ġsupplier": 7187,
      "Regulatory": 7188,
      "ACTIVE": 7189,
      "riterion": 7190,
      "justification": 7191,
      "Ġmulti": 7192,
      "tracking": 7193,
      "itizen": 7194,
      "itnessed": 7195,
      "ĠRemove": 7196,
      "ĠSTRUCTURE": 7197,
      "SODIUM": 7198,
      "FS": 7199,
      "Key": 7200,
      "Open": 7201,
      "drug": 7202,
      "fc": 7203,
      "guide": 7204,
      "ijective": 7205,
      "ti": 7206,
      "tact": 7207,
      "Ġvari": 7208,
      "Ġpersist": 7209,
      "asctime": 7210,
      "Ġinconsistent": 7211,
      "ĊĠĠĠĠĠĠĠĠĠĠĠĠĠĠĠĠĊĠĠĠĠĠĠĠĠĠĠĠĠĠĠĠ": 7212,
      "mages": 7213,
      "Ġdel": 7214,
      "ĠAs": 7215,
      "Ġsticky": 7216,
      "layers": 7217,
      "Ġthem": 7218,
      "Ġproportion": 7219,
      "artbeat": 7220,
      "ĠGTA": 7221,
      "Ġsessions": 7222,
      "agreement": 7223,
      "linear": 7224,
      "controller": 7225,
      "boolean": 7226,
      "yntact": 7227,
      "prime": 7228,
      "DAEMON": 7229,
      "methodology": 7230,
      "autofix": 7231,
      "legal": 7232,
      "Ġsimulation": 7233,
      "Ġcriminal": 7234,
      "Ġclaimed": 7235,
      "eligible": 7236,
      "ĠSulfate": 7237,
      "\"})": 7238,
      ">\")": 7239,
      "BS": 7240,
      "SAL": 7241,
      "au": 7242,
      "github": 7243,
      "hypothesis": 7244,
      "patch": 7245,
      "wall": 7246,
      "âŁ": 7247,
      "ĸ¡": 7248,
      "oriz": 7249,
      "enior": 7250,
      "Ġsit": 7251,
      "Ġequal": 7252,
      "Ġdrug": 7253,
      "Ġbinary": 7254,
      "ĠForm": 7255,
      "ĠPLA": 7256,
      "ĠPreserv": 7257,
      "velocity": 7258,
      "ĠDOMAIN": 7259,
      "concept": 7260,
      "Ġ13": 7261,
      "Ġstated": 7262,
      "physics": 7263,
      "queness": 7264,
      "ĠMath": 7265,
      "elation": 7266,
      "trigger": 7267,
      "Ġhard": 7268,
      "situs": 7269,
      "ĠBasic": 7270,
      "minimal": 7271,
      "HAT": 7272,
      "istrib": 7273,
      "correction": 7274,
      "ĠTests": 7275,
      "Deterministic": 7276,
      "Chain": 7277,
      "caps": 7278,
      "transfer": 7279,
      "ĠOriginal": 7280,
      "Ġtemplate": 7281,
      "Ġoutcome": 7282,
      "Ġfacts": 7283,
      "Alert": 7284,
      "Application": 7285,
      "Processing": 7286,
      "accessibility": 7287,
      "ĠMaximal": 7288,
      "Ġcleanup": 7289,
      "ĠCOMMIT": 7290,
      "anchored": 7291,
      "'\\": 7292,
      "></": 7293,
      "Cla": 7294,
      "CLAIM": 7295,
      "DOWN": 7296,
      "Id": 7297,
      "MISS": 7298,
      "TRO": 7299,
      "]),": 7300,
      "]])": 7301,
      "ban": 7302,
      "cryptographic": 7303,
      "fly": 7304,
      "potential": 7305,
      "uence": 7306,
      "Ġquestion": 7307,
      "rer": 7308,
      "lected": 7309,
      "Ġfabric": 7310,
      "Ġbott": 7311,
      "ĠTurn": 7312,
      "Ġconstruct": 7313,
      "ĠSource": 7314,
      "Ġmand": 7315,
      "char": 7316,
      "clusters": 7317,
      "Ġcovered": 7318,
      "ĠET": 7319,
      "photonic": 7320,
      "ĠMB": 7321,
      "activity": 7322,
      "validity": 7323,
      "ĠOperator": 7324,
      "pages": 7325,
      "ĠBiblical": 7326,
      "Invalid": 7327,
      "Ġautonomy": 7328,
      "versarial": 7329,
      "observations": 7330,
      "alyzing": 7331,
      "')}\"": 7332,
      "column": 7333,
      "Ġactually": 7334,
      "Ġregion": 7335,
      "substitution": 7336,
      "posure": 7337,
      "Ġagency": 7338,
      "Method": 7339,
      "Ġaddress": 7340,
      "Ġcommands": 7341,
      "Ġappropriate": 7342,
      "Validation": 7343,
      "Ġtransformations": 7344,
      "Automative": 7345,
      "Universe": 7346,
      "Ġ3600": 7347,
      "Ġbecause": 7348,
      "CHITECTURE": 7349,
      "DB": 7350,
      "Sink": 7351,
      "SUB": 7352,
      "You": 7353,
      "circuit": 7354,
      "ped": 7355,
      "})\")": 7356,
      "}</": 7357,
      "ons": 7358,
      "institution": 7359,
      "eric": 7360,
      "Ġtax": 7361,
      "mem": 7362,
      "Ġsuite": 7363,
      "Ġepoch": 7364,
      "(\"#": 7365,
      "verdict": 7366,
      "ĠPII": 7367,
      "Ġreturned": 7368,
      "ĠSUCCESS": 7369,
      "izable": 7370,
      "ĠMode": 7371,
      "strained": 7372,
      "ificance": 7373,
      "ĠOperation": 7374,
      "ĠGENER": 7375,
      "Ġsecurity": 7376,
      "ĠUser": 7377,
      "DEMON": 7378,
      "Ġpercent": 7379,
      "Ġruns": 7380,
      "levelname": 7381,
      "IFY": 7382,
      "templates": 7383,
      "mediation": 7384,
      "Ġextraction": 7385,
      "([^": 7386,
      "crash": 7387,
      "Ġupdates": 7388,
      "FILES": 7389,
      "Ġtopology": 7390,
      "Popperian": 7391,
      "keeping": 7392,
      "ĠâĶĢâĶĢâĶĢâĶĢâĶĢâĶĢâĶĢâĶĢâĶĢâĶĢâĶĢâĶĢâĶĢâĶĢâĶĢâĶĢâĶĢâĶĢâĶĢâĶĢâĶĢâĶĢâĶĢâĶĢâĶĢâĶĢâĶĢâĶĢâĶĢâĶĢâĶĢâĶĢâĶĢ": 7393,
      "Ġcontradicts": 7394,
      "ĠMathematics": 7395,
      "Ġintelligence": 7396,
      "/__": 7397,
      "CK": 7398,
      "Number": 7399,
      "Policy": 7400,
      "mcp": 7401,
      "}',": 7402,
      "eno": 7403,
      "Ġfname": 7404,
      "Ġcwd": 7405,
      "Ġrev": 7406,
      "loaded": 7407,
      "Ġdon": 7408,
      "Ġbox": 7409,
      "Ġbank": 7410,
      "ĠCla": 7411,
      "Ġdeterminism": 7412,
      "Ġforward": 7413,
      "construct": 7414,
      "thics": 7415,
      "ALI": 7416,
      "Ġtheir": 7417,
      "Ġsecret": 7418,
      "CEHOL": 7419,
      "ĠConversation": 7420,
      "ĠConcrete": 7421,
      "audits": 7422,
      "Ġcapacity": 7423,
      "prise": 7424,
      "cheduler": 7425,
      "splitlines": 7426,
      "ibling": 7427,
      "Ġderiv": 7428,
      "ĠDEEPSEEK": 7429,
      "ĠCorrespondence": 7430,
      "chestrator": 7431,
      "Interrupt": 7432,
      ":,}\")": 7433,
      "Ġproduce": 7434,
      "interest": 7435,
      "ilosophy": 7436,
      "yntactic": 7437,
      "CEHOLDER": 7438,
      "'}\"": 7439,
      "Cal": 7440,
      "Cross": 7441,
      "Pri": 7442,
      "Suspension": 7443,
      "amination": 7444,
      "bb": 7445,
      "basis": 7446,
      "harm": 7447,
      "Ġ----------": 7448,
      "ĶĤ": 7449,
      "Ġ\"#": 7450,
      "Ġ\"â": 7451,
      "\")).": 7452,
      "ĠTop": 7453,
      "verifiable": 7454,
      "ĠAL": 7455,
      "Ġgood": 7456,
      "ENESS": 7457,
      "ĠReview": 7458,
      "Ġbehavior": 7459,
      "loading": 7460,
      "HASH": 7461,
      "Ġkind": 7462,
      "Ġmaster": 7463,
      "sources": 7464,
      "Ġtransfer": 7465,
      "venv": 7466,
      "signals": 7467,
      "ĠUnassigned": 7468,
      "transactions": 7469,
      "_{\\": 7470,
      "Self": 7471,
      "manent": 7472,
      "Query": 7473,
      "latest": 7474,
      "Ġpair": 7475,
      "eyting": 7476,
      "ĠANALYSIS": 7477,
      "Ġmarkdown": 7478,
      "Directory": 7479,
      "requirement": 7480,
      "EventSink": 7481,
      "ĠConfigure": 7482,
      "udio": 7483,
      "Ġcontradiction": 7484,
      "Ġthreading": 7485,
      "PENDING": 7486,
      "Ġembed": 7487,
      "unterexample": 7488,
      "Dimension": 7489,
      "gaslighting": 7490,
      "hits": 7491,
      "yml": 7492,
      "Ġir": 7493,
      "ĠðĿĴ": 7494,
      "repair": 7495,
      "stack": 7496,
      "stored": 7497,
      "seq": 7498,
      "decode": 7499,
      "Ġrealization": 7500,
      "unclassified": 7501,
      "ĠCreated": 7502,
      "Ġconstruction": 7503,
      "Ġâĩ": 7504,
      "ĠMap": 7505,
      "tries": 7506,
      "pycache": 7507,
      "Ġenforcer": 7508,
      "Ġsuccessor": 7509,
      "Ġverifiable": 7510,
      "ĠUses": 7511,
      "mathematics": 7512,
      "Ġparsing": 7513,
      "Ġ42": 7514,
      "OLVED": 7515,
      "Ġonboarding": 7516,
      "ĠWORK": 7517,
      "Ġperm": 7518,
      "Ġpermission": 7519,
      "ĠTheoState": 7520,
      "Ġtransparency": 7521,
      "necessity": 7522,
      "PORTS": 7523,
      "downloads": 7524,
      "ĠSetup": 7525,
      "EXEC": 7526,
      "reasoning": 7527,
      "ĠTrack": 7528,
      "Ġvisited": 7529,
      "ĠVerified": 7530,
      "Ġsanitized": 7531,
      "Ġseparators": 7532,
      "amily": 7533,
      "ĠAuthority": 7534,
      "\"ðŁĵ": 7535,
      "68": 7536,
      "Pa": 7537,
      "Plan": 7538,
      "]}\",": 7539,
      "elapsed": 7540,
      "wap": 7541,
      "well": 7542,
      "independent": 7543,
      "investigation": 7544,
      "alone": 7545,
      "lete": 7546,
      "Ġpd": 7547,
      "Ġinverse": 7548,
      "Ġinfrastructure": 7549,
      "ĠTRU": 7550,
      "Ġdecl": 7551,
      "tele": 7552,
      "tered": 7553,
      "Ġour": 7554,
      "distrib": 7555,
      "Ġrights": 7556,
      "through": 7557,
      "ĠENG": 7558,
      "ĠRoot": 7559,
      "'])}\")": 7560,
      "Ġglass": 7561,
      "ĠOne": 7562,
      ").',": 7563,
      "eps": 7564,
      "tested": 7565,
      "param": 7566,
      "Ġbeen": 7567,
      "ocial": 7568,
      "Ġdiagnostic": 7569,
      "FACT": 7570,
      "Ġalias": 7571,
      "Required": 7572,
      "Ġexecuted": 7573,
      "')}\",": 7574,
      "venience": 7575,
      "Ġstatute": 7576,
      "PISTEM": 7577,
      "labels": 7578,
      "nonnegative": 7579,
      "chatgpt": 7580,
      "suppression": 7581,
      "ĠSection": 7582,
      "ĠProcessing": 7583,
      "accessible": 7584,
      "ĠâĦķ": 7585,
      "Point": 7586,
      "Ġexplo": 7587,
      "Ġsufficient": 7588,
      "ĠExplicitFailure": 7589,
      "ociativity": 7590,
      "istleblower": 7591,
      "representation": 7592,
      "Ġarguments": 7593,
      "CROSS": 7594,
      "Be": 7595,
      "CD": 7596,
      "FDA": 7597,
      "SRC": 7598,
      "UA": 7599,
      "WAR": 7600,
      "^{": 7601,
      "tlement": 7602,
      "vault": 7603,
      "{'='": 7604,
      "erprint": 7605,
      "enef": 7606,
      "iso": 7607,
      "isol": 7608,
      "ingerprint": 7609,
      "Ġsche": 7610,
      "strong": 7611,
      "Ġdown": 7612,
      "major": 7613,
      "ĠFixed": 7614,
      "ĠSTE": 7615,
      "virtual": 7616,
      "thermal": 7617,
      "ĠREC": 7618,
      "ĠNew": 7619,
      "ĠMust": 7620,
      "Ġintegr": 7621,
      "Ġhypothesis": 7622,
      "ounds": 7623,
      "Ġdatabase": 7624,
      "Ġlogical": 7625,
      "ĠInvalid": 7626,
      "PACE": 7627,
      "LEARNING": 7628,
      "Ġhere": 7629,
      "addressed": 7630,
      "background": 7631,
      "ĠJohn": 7632,
      "ĠJesus": 7633,
      "USADER": 7634,
      "ĠÎ±": 7635,
      "Ġregulatory": 7636,
      "frozenset": 7637,
      "Ġnecessity": 7638,
      "Ġpassing": 7639,
      "supply": 7640,
      "Ġcontaining": 7641,
      "ĠDirectory": 7642,
      "gateway": 7643,
      "Ġclipping": 7644,
      "Ġcharacter": 7645,
      "Ġcharacters": 7646,
      "Ġwrapper": 7647,
      "ĠSigmaThe": 7648,
      "pawn": 7649,
      "ORTHOGONAL": 7650,
      "AX": 7651,
      "Power": 7652,
      "Trace": 7653,
      "aware": 7654,
      "cardinal": 7655,
      "iated": 7656,
      "mul": 7657,
      "nan": 7658,
      "ops": 7659,
      "sort": 7660,
      "swer": 7661,
      "Ġvariables": 7662,
      "atification": 7663,
      "Ġfold": 7664,
      "Ġps": 7665,
      "Ġpos": 7666,
      "uron": 7667,
      "urch": 7668,
      "edger": 7669,
      "Ġeps": 7670,
      "coefficient": 7671,
      "Ġdeclared": 7672,
      "Ġconcept": 7673,
      "ĠDocument": 7674,
      "Ġstyle": 7675,
      "ĠEmbedding": 7676,
      "rend": 7677,
      "render": 7678,
      "definition": 7679,
      "Ġcompany": 7680,
      "Ġcomputational": 7681,
      "numerator": 7682,
      "ĠCovenant": 7683,
      "CHRIST": 7684,
      "ESCH": 7685,
      "prefix": 7686,
      "ĠDebt": 7687,
      "Count": 7688,
      "cols": 7689,
      "CID": 7690,
      "Chunk": 7691,
      "ATURE": 7692,
      "POCH": 7693,
      "disclosure": 7694,
      "Ġrelationship": 7695,
      "requested": 7696,
      "Ġupdated": 7697,
      "Setup": 7698,
      "channels": 7699,
      "theorems": 7700,
      "ĠBoundaryViolation": 7701,
      "certification": 7702,
      "vestig": 7703,
      "INVARIANT": 7704,
      "links": 7705,
      "Print": 7706,
      "Ġnormalized": 7707,
      "ĠAutoTokenizer": 7708,
      "ĠAirCurtain": 7709,
      "Ġoccur": 7710,
      "commodation": 7711,
      ">'": 7712,
      "Ab": 7713,
      "BRA": 7714,
      "Cit": 7715,
      "Clean": 7716,
      "EPOCH": 7717,
      "Mult": 7718,
      "Operator": 7719,
      "Ut": 7720,
      "Write": 7721,
      "nip": 7722,
      "oke": 7723,
      "sd": 7724,
      "single": 7725,
      "tds": 7726,
      "Ġ---": 7727,
      "recall": 7728,
      "Ġ\"_": 7729,
      "alk": 7730,
      "ane": 7731,
      "Ġevolution": 7732,
      "Ġindividual": 7733,
      "ĠCR": 7734,
      "ĠPlan": 7735,
      "Ġdead": 7736,
      "Ġdebug": 7737,
      "ĠSAL": 7738,
      "Ġrdfs": 7739,
      "Ġcos": 7740,
      "Ġisol": 7741,
      "jecture": 7742,
      "ĠLA": 7743,
      "ĠRest": 7744,
      "ĠIter": 7745,
      "undancy": 7746,
      "classical": 7747,
      "ĠBackup": 7748,
      "Ġverbose": 7749,
      "Ġ35": 7750,
      "Ġdigest": 7751,
      "uality": 7752,
      "ĠCould": 7753,
      "cremental": 7754,
      "ught": 7755,
      "LOS": 7756,
      "Ġprocessor": 7757,
      "Falsification": 7758,
      "subset": 7759,
      "methods": 7760,
      "most": 7761,
      "Ġfilter": 7762,
      "Ġvirtual": 7763,
      "ĠCommit": 7764,
      "Ġvehicles": 7765,
      "Ġapproximation": 7766,
      "SOURCE": 7767,
      "ĠÏĥ": 7768,
      "ProofObject": 7769,
      "Ġclosed": 7770,
      "ĠMethod": 7771,
      "Ġpady": 7772,
      "Cannot": 7773,
      "standing": 7774,
      "exports": 7775,
      "ĠVIOLATION": 7776,
      "ĠTYPE": 7777,
      "ĠRuntimeError": 7778,
      "\"^": 7779,
      "+)": 7780,
      "HUA": 7781,
      "ait": 7782,
      "guarante": 7783,
      "yadic": 7784,
      "Ġ]:": 7785,
      "Ġanti": 7786,
      "onboarding": 7787,
      "infrastructure": 7788,
      "align": 7789,
      "sex": 7790,
      "Ġrecursive": 7791,
      "Ġsyntax": 7792,
      "Ġsoftware": 7793,
      "\")[": 7794,
      "Ġevaluate": 7795,
      "Ġbias": 7796,
      "Ġmd": 7797,
      "Ġ17": 7798,
      "emo": 7799,
      "divergence": 7800,
      "diagram": 7801,
      "Ġlight": 7802,
      "Ġdefinitions": 7803,
      "Ġnotice": 7804,
      "']}:": 7805,
      "violated": 7806,
      "artment": 7807,
      "dirname": 7808,
      "Ġsecond": 7809,
      "Incident": 7810,
      "contraction": 7811,
      "Ġless": 7812,
      "theta": 7813,
      "ĠYAML": 7814,
      "\"{'='": 7815,
      "MENTATION": 7816,
      "Property": 7817,
      "Ġmathematics": 7818,
      "URAL": 7819,
      "Ġclassify": 7820,
      "ĠLogic": 7821,
      "autonomous": 7822,
      "EXAM": 7823,
      "commendation": 7824,
      "Ġchains": 7825,
      "ModelFor": 7826,
      "Ġimpossibility": 7827,
      "sterior": 7828,
      "Files": 7829,
      "gaps": 7830,
      "ĠHTT": 7831,
      "expansion": 7832,
      "ĠAutoModelFor": 7833,
      "WARE": 7834,
      "ĠPartial": 7835,
      "ĠREADY": 7836,
      "ĠOntologicalState": 7837,
      "CausalLM": 7838,
      "Ġ-------": 7839,
      "rooms": 7840,
      "HUMAN": 7841,
      "AUTOM": 7842,
      "YDRO": 7843,
      "EPOCHS": 7844,
      "ĠAutoModelForCausalLM": 7845,
      "Bool": 7846,
      "If": 7847,
      "IOM": 7848,
      "MENTED": 7849,
      "Turn": 7850,
      "Task": 7851,
      "UE": 7852,
      "aid": 7853,
      "best": 7854,
      "custody": 7855,
      "sures": 7856,
      "syntax": 7857,
      "Ġfire": 7858,
      "Ġpract": 7859,
      "Ġpending": 7860,
      "debug": 7861,
      "Ġreverse": 7862,
      "Ġreproducibility": 7863,
      "Ġadequate": 7864,
      "mago": 7865,
      "ĠCI": 7866,
      "peft": 7867,
      "ĠSupp": 7868,
      "Ġrational": 7869,
      "thing": 7870,
      "Ġlat": 7871,
      "Ġstream": 7872,
      "abe": 7873,
      "ĠNormal": 7874,
      "TECTED": 7875,
      "until": 7876,
      "validated": 7877,
      "ĠOSError": 7878,
      "reduc": 7879,
      "uble": 7880,
      "ĠExternal": 7881,
      "show": 7882,
      "ĠHandle": 7883,
      "Ġdivergence": 7884,
      "SIVE": 7885,
      "center": 7886,
      "Ġaccuracy": 7887,
      "Ġcodes": 7888,
      "ĠÎ©": 7889,
      "needed": 7890,
      "SCHEMA": 7891,
      "terminal": 7892,
      "Ġâīł": 7893,
      "094": 7894,
      "Ġsaid": 7895,
      "rollment": 7896,
      "ĠQuery": 7897,
      "ĠZed": 7898,
      "Ġapproval": 7899,
      "Ġmarket": 7900,
      "payoff": 7901,
      "ĠTESTS": 7902,
      "rupted": 7903,
      "ĠKeyboard": 7904,
      "Ġcertification": 7905,
      "ĠStatistics": 7906,
      "velopment": 7907,
      "ESCHATON": 7908,
      "\"#": 7909,
      "*\",": 7910,
      "+(?:": 7911,
      "31": 7912,
      "BASE": 7913,
      "CLI": 7914,
      "PRES": 7915,
      "Safety": 7916,
      "UTES": 7917,
      "VAL": 7918,
      "]\"),": 7919,
      "lang": 7920,
      "oate": 7921,
      "soundness": 7922,
      "uv": 7923,
      "ini": 7924,
      "instructions": 7925,
      "Ġ\"âľĵ": 7926,
      "Ġpres": 7927,
      "Ġpreserve": 7928,
      "dev": 7929,
      "decorator": 7930,
      "utant": 7931,
      "Ġsil": 7932,
      "escalation": 7933,
      "Ġevalu": 7934,
      "Ġepochs": 7935,
      "Ġinspect": 7936,
      "ĠFix": 7937,
      "ĠTrain": 7938,
      "ĠCLAIM": 7939,
      "ĠSem": 7940,
      "assistant": 7941,
      "ĠEvent": 7942,
      "ĠEpistemic": 7943,
      "quent": 7944,
      "ĠII": 7945,
      "Ġhit": 7946,
      "Ġhow": 7947,
      "Ġhook": 7948,
      "pagation": 7949,
      "iving": 7950,
      "compose": 7951,
      "ARC": 7952,
      "Ġchars": 7953,
      "Ġvar": 7954,
      "ĠWhether": 7955,
      "ĠComplex": 7956,
      "ĠChalcedonian": 7957,
      "andlers": 7958,
      "cape": 7959,
      "tach": 7960,
      "Counter": 7961,
      "fair": 7962,
      "Ġrole": 7963,
      "typing": 7964,
      "ĠUnicode": 7965,
      "ientific": 7966,
      "ULTS": 7967,
      "Value": 7968,
      "scanned": 7969,
      "Measure": 7970,
      "claimed": 7971,
      "Ġmanual": 7972,
      "ĠActivation": 7973,
      "Parse": 7974,
      "FORMAL": 7975,
      "Ġuniversal": 7976,
      "ĠFailureCategory": 7977,
      "ossians": 7978,
      "Structural": 7979,
      "Ġcloud": 7980,
      "Ġcorrectly": 7981,
      "Integration": 7982,
      "dimensions": 7983,
      "Monitor": 7984,
      "ðŁİī": 7985,
      "conflicts": 7986,
      "ĠGroup": 7987,
      "demonstration": 7988,
      "Ġsalvation": 7989,
      "STRUCTION": 7990,
      "Ġcsv": 7991,
      "Implemented": 7992,
      "ĠKeyboardInterrupt": 7993,
      "AST": 7994,
      "Art": 7995,
      "BATCH": 7996,
      "MCP": 7997,
      "NS": 7998,
      "SUCCESS": 7999,
      "World": 8000,
      "crypt": 8001,
      "ead": 8002,
      "fractal": 8003,
      "given": 8004,
      "na": 8005,
      "tick": 8006,
      "ancial": 8007,
      "Ġfall": 8008,
      "Ġsmall": 8009,
      "coherence": 8010,
      "Ġdivine": 8011,
      "Ġbasis": 8012,
      "ĠCS": 8013,
      "ĠPO": 8014,
      "Ġconcent": 8015,
      "ĠSIM": 8016,
      "ĠAcid": 8017,
      "imi": 8018,
      "conomic": 8019,
      "TIM": 8020,
      "Ġstill": 8021,
      "ĠLanguage": 8022,
      "posed": 8023,
      "ĠName": 8024,
      "omb": 8025,
      "inelasticity": 8026,
      "classification": 8027,
      "adjunction": 8028,
      "ANO": 8029,
      "ĠVis": 8030,
      "Ġenforce": 8031,
      "forensic": 8032,
      "Infrastructure": 8033,
      "Ġpermissions": 8034,
      ")},": 8035,
      "Ġcorruption": 8036,
      "Ġkw": 8037,
      "ffective": 8038,
      "LOAD": 8039,
      "```": 8040,
      "Ġinterpol": 8041,
      "Ġyeshua": 8042,
      "ava": 8043,
      "Energy": 8044,
      "PERI": 8045,
      "Ġuuid": 8046,
      "partial": 8047,
      "initialization": 8048,
      "Ġboundaries": 8049,
      "Ġclusters": 8050,
      "Ġentire": 8051,
      "Ġshared": 8052,
      "ĠCHRIST": 8053,
      "Ġgrounding": 8054,
      "Ġestimate": 8055,
      "ĠWorking": 8056,
      "Ġsatisfaction": 8057,
      "Ġordering": 8058,
      "scheduled": 8059,
      "Timestamp": 8060,
      "Ġcontradictions": 8061,
      "ĠUniversal": 8062,
      "Transition": 8063,
      "CPA": 8064,
      "DRU": 8065,
      "Drive": 8066,
      "SM": 8067,
      "YN": 8068,
      "bank": 8069,
      "cwd": 8070,
      "evalu": 8071,
      "ws": 8072,
      "ypostatic": 8073,
      "rees": 8074,
      "recent": 8075,
      "ctim": 8076,
      "depart": 8077,
      "isation": 8078,
      "olver": 8079,
      "Ġinp": 8080,
      "Ġinstitution": 8081,
      "(\".\")": 8082,
      "ĠFunction": 8083,
      "ĠPRI": 8084,
      "ĠDemonstr": 8085,
      "ĠAS": 8086,
      "Ġwriter": 8087,
      "ĠLE": 8088,
      "007": 8089,
      "ĠNumber": 8090,
      "TEM": 8091,
      "like": 8092,
      "RATI": 8093,
      "Ġenabled": 8094,
      "topos": 8095,
      "ĠExport": 8096,
      "mmutable": 8097,
      "ĠHE": 8098,
      "Reason": 8099,
      "Ġraised": 8100,
      "VEL": 8101,
      "noise": 8102,
      "MATH": 8103,
      "ĠProperty": 8104,
      "Ġlimitation": 8105,
      "Systems": 8106,
      "Ġstructured": 8107,
      "Ġnumbers": 8108,
      "Quick": 8109,
      "Ġâī¡": 8110,
      "ĠParaconsistent": 8111,
      "}.{": 8112,
      "norms": 8113,
      "ĠResults": 8114,
      "Ġscanner": 8115,
      "ĠOnboarding": 8116,
      "inux": 8117,
      "Ġinterest": 8118,
      "ccup": 8119,
      "Ġadapter": 8120,
      "SIGN": 8121,
      "Temporary": 8122,
      "attributed": 8123,
      "ðŁļĢ": 8124,
      "uplicate": 8125,
      "cells": 8126,
      "enario": 8127,
      "ositionalRule": 8128,
      "ĠâĩĴ": 8129,
      "ĠENGINE": 8130,
      "DRUG": 8131,
      ")[": 8132,
      "55": 8133,
      "82": 8134,
      "Cl": 8135,
      "COVER": 8136,
      "Free": 8137,
      "GCP": 8138,
      "Mass": 8139,
      "Preserv": 8140,
      "Perm": 8141,
      "Target": 8142,
      "YES": 8143,
      "gated": 8144,
      "war": 8145,
      "Ġ?": 8146,
      "stress": 8147,
      "environ": 8148,
      "itz": 8149,
      "Ġpotential": 8150,
      "Ġrecorded": 8151,
      "Ġinclusion": 8152,
      "Ġban": 8153,
      "Ġbits": 8154,
      "Ġnm": 8155,
      "ĠCO": 8156,
      "ĠPI": 8157,
      "Ġconcrete": 8158,
      "Ġconsole": 8159,
      "ĠDemonstrate": 8160,
      "ĠAP": 8161,
      "Ġ'--": 8162,
      "Ġoptional": 8163,
      "emergency": 8164,
      "ĠEvaluation": 8165,
      "Ġtopos": 8166,
      "ĠRisk": 8167,
      "ivered": 8168,
      "portation": 8169,
      "river": 8170,
      "Ġprove": 8171,
      "ogle": 8172,
      "ĠGate": 8173,
      "ĠViolations": 8174,
      "Ġordered": 8175,
      "Ġthermal": 8176,
      "ĠBI": 8177,
      "ategies": 8178,
      "overtime": 8179,
      "amendment": 8180,
      "ĠWould": 8181,
      "ĠWarden": 8182,
      "ĠWITH": 8183,
      "SISTE": 8184,
      "VELO": 8185,
      "IGN": 8186,
      "grams": 8187,
      "UNCTION": 8188,
      "MENTS": 8189,
      "Product": 8190,
      "Ġfoundation": 8191,
      "Ġactivity": 8192,
      "Ġtransformed": 8193,
      "venue": 8194,
      "Ġtimestamps": 8195,
      "Theory": 8196,
      "QUA": 8197,
      "manufacturing": 8198,
      "Ġformatter": 8199,
      "Ġadded": 8200,
      "Ġ90": 8201,
      "ĠCOMPLI": 8202,
      "Ġtrainable": 8203,
      "sprayer": 8204,
      "Ġblocks": 8205,
      "Ġeffective": 8206,
      "Ġmeasurement": 8207,
      "ĠConfiguration": 8208,
      "RequestType": 8209,
      "Ġgaps": 8210,
      "Ġmedia": 8211,
      "ĠTransactionGuard": 8212,
      "received": 8213,
      "2024": 8214,
      "Ġ===\")": 8215,
      "LIMIT": 8216,
      "ĠPermission": 8217,
      "Label": 8218,
      "Ġstructures": 8219,
      "BOUNDARY": 8220,
      "Ġschemas": 8221,
      "nippet": 8222,
      "$\",": 8223,
      ")[:": 8224,
      "+\\": 8225,
      "37": 8226,
      "87": 8227,
      "Daemon": 8228,
      "ZED": 8229,
      "bre": 8230,
      "breach": 8231,
      "dif": 8232,
      "dil": 8233,
      "duty": 8234,
      "daily": 8235,
      "evolution": 8236,
      "fect": 8237,
      "nation": 8238,
      "pred": 8239,
      "wg": 8240,
      "rele": 8241,
      "enticity": 8242,
      "asures": 8243,
      "codomain": 8244,
      "Ġachie": 8245,
      "Ġdynamic": 8246,
      "Ġnumpy": 8247,
      "ĠCritical": 8248,
      "ĠClear": 8249,
      "ĠPri": 8250,
      "thyl": 8251,
      "Ġlib": 8252,
      "absolute": 8253,
      "ĠEst": 8254,
      "ĠIdent": 8255,
      "ĠMAN": 8256,
      "ĠMODEL": 8257,
      "Ġcomposition": 8258,
      "feature": 8259,
      "appe": 8260,
      "ĠHardware": 8261,
      "Ġparty": 8262,
      "ocam": 8263,
      "wave": 8264,
      "ĠEnd": 8265,
      "ĠChunk": 8266,
      "Ġpopperian": 8267,
      "Ġobs": 8268,
      "Ġdiscrepancy": 8269,
      "interface": 8270,
      "temporary": 8271,
      "trap": 8272,
      "priv": 8273,
      "Ġmonth": 8274,
      "ĠForce": 8275,
      "ĠVERIFIED": 8276,
      "ĠDirect": 8277,
      "simulated": 8278,
      "approval": 8279,
      "Executor": 8280,
      "Diagnostic": 8281,
      "solver": 8282,
      "ĠPRINCI": 8283,
      "COMPLIANT": 8284,
      "nonempty": 8285,
      "ĠStatistical": 8286,
      "BLICAL": 8287,
      "Ġmeaning": 8288,
      "ĠTransition": 8289,
      "leakage": 8290,
      "Scanner": 8291,
      "enzoate": 8292,
      "Ġexcluded": 8293,
      "basicConfig": 8294,
      "erospace": 8295,
      "DEMONSTRATION": 8296,
      "+\",": 8297,
      ">{": 8298,
      "CER": 8299,
      "Gro": 8300,
      "Is": 8301,
      "Kernel": 8302,
      "Rate": 8303,
      "eved": 8304,
      "halt": 8305,
      "predicate": 8306,
      "symmetric": 8307,
      "stable": 8308,
      "studies": 8309,
      "erate": 8310,
      "Ġcriteria": 8311,
      "Ġcenter": 8312,
      "Ġrecall": 8313,
      "Ġsigma": 8314,
      "ulator": 8315,
      "ĊĠĠĠĠĠĠĠĠĠĠĠĠĠĠĠĠĠ": 8316,
      "Ġnarrative": 8317,
      "ĠText": 8318,
      "ĠCryptographic": 8319,
      "ĠPy": 8320,
      "ĠSte": 8321,
      "ĠADA": 8322,
      "ĠARC": 8323,
      "ĠACID": 8324,
      "ably": 8325,
      "ĠLab": 8326,
      "ĠRo": 8327,
      "logical": 8328,
      "006": 8329,
      "ĠMain": 8330,
      "ĠBool": 8331,
      "Ġbelief": 8332,
      "CEPTION": 8333,
      "Ġtrust": 8334,
      "region": 8335,
      "VERE": 8336,
      "Ġuncertainty": 8337,
      "ĠEngine": 8338,
      "locked": 8339,
      "factors": 8340,
      "Ġlinear": 8341,
      "Ġarea": 8342,
      "observed": 8343,
      "Protocol": 8344,
      "Ġregulations": 8345,
      "ĠLook": 8346,
      "posals": 8347,
      "ĠMATHEMATICAL": 8348,
      "pilot": 8349,
      "tasks": 8350,
      "schemas": 8351,
      "Ġtransitions": 8352,
      "ĠStructure": 8353,
      "ĠEvidenceStore": 8354,
      "Ġaccepted": 8355,
      "LaTeX": 8356,
      "cleanup": 8357,
      "imony": 8358,
      "ĠToken": 8359,
      "angerous": 8360,
      "lenecks": 8361,
      "Ag": 8362,
      "CLE": 8363,
      "Glass": 8364,
      "GPU": 8365,
      "MPA": 8366,
      "Mimicry": 8367,
      "Natural": 8368,
      "Page": 8369,
      "UTH": 8370,
      "fall": 8371,
      "governed": 8372,
      "nature": 8373,
      "Î±": 8374,
      "atial": 8375,
      "itored": 8376,
      "rob": 8377,
      "Ġrepaired": 8378,
      "urable": 8379,
      "Ġelem": 8380,
      "Ġins": 8381,
      "Ġincl": 8382,
      "Ġinstructions": 8383,
      "cos": 8384,
      "Ġapi": 8385,
      "Ġbreach": 8386,
      "ĠCausal": 8387,
      "Ġdeviation": 8388,
      "ilar": 8389,
      "resurrection": 8390,
      "ĠDrug": 8391,
      "ĠSur": 8392,
      "ĠSuccess": 8393,
      "Ġ'âľĹ": 8394,
      "Ġstand": 8395,
      "ither": 8396,
      "008": 8397,
      "apping": 8398,
      "ensing": 8399,
      "ENTI": 8400,
      "Ġmechanism": 8401,
      "etition": 8402,
      "ĠHIGH": 8403,
      "itemize": 8404,
      "Constants": 8405,
      "numbers": 8406,
      "questions": 8407,
      "Ġtransport": 8408,
      "Ġappend": 8409,
      "executed": 8410,
      "Ġclassical": 8411,
      "MINUTES": 8412,
      "ĠKan": 8413,
      "mount": 8414,
      "Ġstarted": 8415,
      "Ġcollection": 8416,
      "trial": 8417,
      "FEREN": 8418,
      "armup": 8419,
      "ACK": 8420,
      "ĠAtomicEventSink": 8421,
      "Ġnormalize": 8422,
      "help": 8423,
      "Ġconfirmed": 8424,
      "BUG": 8425,
      "ĠFrozenSet": 8426,
      "41": 8427,
      "84": 8428,
      "Adapt": 8429,
      "Bar": 8430,
      "CALL": 8431,
      "FLOW": 8432,
      "Med": 8433,
      "Sample": 8434,
      "Schedule": 8435,
      "SCORE": 8436,
      "With": 8437,
      "WOR": 8438,
      "fin": 8439,
      "null": 8440,
      "oices": 8441,
      "ĠĠĊ": 8442,
      "reproducible": 8443,
      "orption": 8444,
      "allow": 8445,
      "selector": 8446,
      "lections": 8447,
      "Ġfloor": 8448,
      "Ġcuda": 8449,
      "asi": 8450,
      "Ġsplit": 8451,
      "Ġemergency": 8452,
      "Ġdiv": 8453,
      "ada": 8454,
      "ils": 8455,
      "peutic": 8456,
      "ĠSO": 8457,
      "imination": 8458,
      "Ġrates": 8459,
      "projection": 8460,
      "proxy": 8461,
      "Ġelig": 8462,
      "ERING": 8463,
      "ĠOper": 8464,
      "Ġthera": 8465,
      "feed": 8466,
      "egrate": 8467,
      "contain": 8468,
      "Review": 8469,
      "regulated": 8470,
      "monotonic": 8471,
      "theology": 8472,
      "PROOF": 8473,
      "employ": 8474,
      "},{": 8475,
      "Ġprefix": 8476,
      "Tests": 8477,
      "executor": 8478,
      "uncation": 8479,
      "URS": 8480,
      "Ġoverlap": 8481,
      "ekly": 8482,
      "autom": 8483,
      "agents": 8484,
      "Ġadjunction": 8485,
      "responses": 8486,
      "iteration": 8487,
      "reasons": 8488,
      "GRAD": 8489,
      "Ġmarker": 8490,
      "INTEG": 8491,
      "Ġ255": 8492,
      "Transform": 8493,
      "Minimum": 8494,
      "Ġscheduled": 8495,
      "Ġreplacement": 8496,
      "FunctionDef": 8497,
      "ERVATION": 8498,
      "semantic": 8499,
      "ĠSigmaTheo": 8500,
      "Ġepsilon": 8501,
      "150": 8502,
      "GAME": 8503,
      "NON": 8504,
      "UAR": 8505,
      "YTH": 8506,
      "]}\"": 8507,
      "aults": 8508,
      "evolutionary": 8509,
      "must": 8510,
      "panel": 8511,
      "Ġimmediate": 8512,
      "steward": 8513,
      "seal": 8514,
      "Ġforensic": 8515,
      "Ġcell": 8516,
      "arable": 8517,
      "ceeds": 8518,
      "hem": 8519,
      "asing": 8520,
      "rad": 8521,
      "lope": 8522,
      "gered": 8523,
      "ĠTB": 8524,
      "ĠTechnical": 8525,
      "ĠCa": 8526,
      "ĠCr": 8527,
      "ĠPAR": 8528,
      "iggered": 8529,
      "chn": 8530,
      "umility": 8531,
      "exam": 8532,
      "ĠED": 8533,
      "ĠLLM": 8534,
      "Ġnotification": 8535,
      "ĠRUN": 8536,
      "RECT": 8537,
      "STATE": 8538,
      "uding": 8539,
      "ĠGuardian": 8540,
      "ĠBenzoate": 8541,
      "parate": 8542,
      "Ġhasher": 8543,
      "imitives": 8544,
      "Ġallocation": 8545,
      "ĠTheology": 8546,
      "started": 8547,
      "External": 8548,
      "Provides": 8549,
      "VERSION": 8550,
      "related": 8551,
      "availability": 8552,
      "binary": 8553,
      "Ġchunking": 8554,
      "ĠRunning": 8555,
      "Ġworkflows": 8556,
      "Ġ``\"": 8557,
      "Ġtasks": 8558,
      "transitions": 8559,
      "Ġ{'âľĵ": 8560,
      "preservatives": 8561,
      "Ġboot": 8562,
      "Execution": 8563,
      "COUN": 8564,
      "sumer": 8565,
      "ĠâĦĿ": 8566,
      "Ġdenied": 8567,
      "ĠMarkdown": 8568,
      "Ġfinally": 8569,
      "Ġefficiency": 8570,
      "itizenship": 8571,
      "RATIO": 8572,
      ")],": 8573,
      "ABILITY": 8574,
      "Drug": 8575,
      "Find": 8576,
      "Facility": 8577,
      "LSA": 8578,
      "Out": 8579,
      "augmented": 8580,
      "camera": 8581,
      "gl": 8582,
      "hs": 8583,
      "ictions": 8584,
      "tmp": 8585,
      "oring": 8586,
      "Ġpremise": 8587,
      "demption": 8588,
      "Ġrejected": 8589,
      "Ġskip": 8590,
      "coy": 8591,
      "otient": 8592,
      "Ġpriv": 8593,
      "macy": 8594,
      "isters": 8595,
      "Ġconst": 8596,
      "Ġmock": 8597,
      "ĠAv": 8598,
      "Ġwell": 8599,
      "izations": 8600,
      "__)": 8601,
      "'])": 8602,
      "Ġthey": 8603,
      "Ġprocesses": 8604,
      "ucc": 8605,
      "ERO": 8606,
      "article": 8607,
      "ublished": 8608,
      "ĠRequired": 8609,
      "usting": 8610,
      "ifiers": 8611,
      "parity": 8612,
      "outcome": 8613,
      "ATIONS": 8614,
      "...\",": 8615,
      "Ġfailing": 8616,
      "Ġunclassified": 8617,
      "prediction": 8618,
      "MATHEMATICS": 8619,
      "TABLE": 8620,
      "Ġpopulation": 8621,
      "obs": 8622,
      "Ġyet": 8623,
      "URL": 8624,
      "Ġdisclosure": 8625,
      "ĠKe": 8626,
      "QUANT": 8627,
      "particip": 8628,
      "Christological": 8629,
      "ĠAdditional": 8630,
      "supported": 8631,
      "transcripts": 8632,
      "documented": 8633,
      "CUDA": 8634,
      "ĠSpecification": 8635,
      "ĠSpecial": 8636,
      "ĠMinimum": 8637,
      "Ġpersona": 8638,
      "Timeout": 8639,
      "ĠMonitoring": 8640,
      "Display": 8641,
      "ĠGRACE": 8642,
      "ĠArchitecture": 8643,
      "vantage": 8644,
      "ĠDiagnosticStatus": 8645,
      "Ġiterations": 8646,
      "ĠSTAT": 8647,
      "SAMPLES": 8648,
      "Ġattack": 8649,
      "abeas": 8650,
      "ĠĠĊĠĠĊĠĠĠĠĠĠĠ": 8651,
      "QUANTUM": 8652,
      "'):": 8653,
      "300": 8654,
      "COM": 8655,
      "Cocam": 8656,
      "Document": 8657,
      "Message": 8658,
      "OUTPUT": 8659,
      "Supp": 8660,
      "Sensor": 8661,
      "adequate": 8662,
      "cup": 8663,
      "pd": 8664,
      "pure": 8665,
      "rights": 8666,
      "treat": 8667,
      "âļł": 8668,
      "Ġkeep": 8669,
      "atant": 8670,
      "reached": 8671,
      "analyzed": 8672,
      "detailed": 8673,
      "meet": 8674,
      "ollowed": 8675,
      "Ġincrease": 8676,
      "court": 8677,
      "Ġam": 8678,
      "ĠFormat": 8679,
      "ĠFair": 8680,
      "Ġdetailed": 8681,
      "ultation": 8682,
      "Ġexpired": 8683,
      "Ġcodomain": 8684,
      "explan": 8685,
      "explicit": 8686,
      "Ġstable": 8687,
      "abb": 8688,
      "ureth": 8689,
      "pout": 8690,
      "ĠIS": 8691,
      "Ġhazard": 8692,
      "Ġorchestration": 8693,
      "ĠReputation": 8694,
      "Ġ<<": 8695,
      "ĠInstance": 8696,
      "parameter": 8697,
      "Instance": 8698,
      "ITHO": 8699,
      "ĠCons": 8700,
      "primitive": 8701,
      "corpus": 8702,
      "facts": 8703,
      "ĠPrompt": 8704,
      "Ġmaps": 8705,
      "Ġintervention": 8706,
      "Ġconfigured": 8707,
      "Ġdatasets": 8708,
      "Ġcreates": 8709,
      "ĠLaureth": 8710,
      "OFF": 8711,
      "Ġadjust": 8712,
      "backups": 8713,
      "ĠParallel": 8714,
      "DUCTION": 8715,
      "Ġblocked": 8716,
      "ĠAlso": 8717,
      "ðŁĶ§": 8718,
      "Ġhigher": 8719,
      "BOX": 8720,
      "vectors": 8721,
      "Ġcalculated": 8722,
      "Integrity": 8723,
      "Ġdiffers": 8724,
      "continuity": 8725,
      "Ġincludes": 8726,
      "Description": 8727,
      "ĠSpeaker": 8728,
      "ĠIMPLEMENTED": 8729,
      "luing": 8730,
      "ĠOrtho": 8731,
      "epsilon": 8732,
      "ITHOUT": 8733,
      ".)": 8734,
      "EPISTEM": 8735,
      "FI": 8736,
      "SPEC": 8737,
      "ev": 8738,
      "equal": 8739,
      "ially": 8740,
      "nume": 8741,
      "pla": 8742,
      "ued": 8743,
      "Ġer": 8744,
      "inse": 8745,
      "inverse": 8746,
      "sequent": 8747,
      "ctr": 8748,
      "Ġpixel": 8749,
      "Ġcred": 8750,
      "Ġcategorical": 8751,
      "\",\",": 8752,
      "Ġtick": 8753,
      "inth": 8754,
      "Ġsampling": 8755,
      "strate": 8756,
      "made": 8757,
      "Ġbenchmark": 8758,
      "added": 8759,
      "ĠSEC": 8760,
      "conversations": 8761,
      "------------------------": 8762,
      "Ġtheology": 8763,
      "Ġhmac": 8764,
      "ĠGradient": 8765,
      "argo": 8766,
      "pyl": 8767,
      "iration": 8768,
      "irth": 8769,
      "ĠHeyting": 8770,
      "ertification": 8771,
      "ĠWith": 8772,
      "lications": 8773,
      "ATER": 8774,
      "MAT": 8775,
      "Ġsubsystem": 8776,
      "USAL": 8777,
      "Ġcommunication": 8778,
      "Program": 8779,
      "achine": 8780,
      "Device": 8781,
      "Ġsources": 8782,
      "ĠComponent": 8783,
      "TYPE": 8784,
      "stituted": 8785,
      "123": 8786,
      "Ġavailability": 8787,
      "PELINE": 8788,
      "scanner": 8789,
      "ĠâīĪ": 8790,
      "Ġfactors": 8791,
      "ĠEXTRACT": 8792,
      "Ġidx": 8793,
      "ĠTransform": 8794,
      "ĠPrepare": 8795,
      "Ġinstead": 8796,
      "Colors": 8797,
      "Transaction": 8798,
      "Ġexactly": 8799,
      "abspath": 8800,
      "]}...\",": 8801,
      "ĠViolationSeverity": 8802,
      "VENANT": 8803,
      "ChatGPT": 8804,
      "ĠMinimalAI": 8805,
      "Ġguarantees": 8806,
      "button": 8807,
      "ribution": 8808,
      "ilingual": 8809,
      "Ġsolid": 8810,
      "ĠFILE": 8811,
      "Decision": 8812,
      "ripke": 8813,
      "âģ¿": 8814,
      "numel": 8815,
      "63": 8816,
      "81": 8817,
      ":<": 8818,
      "ASS": 8819,
      "Demonstr": 8820,
      "Equal": 8821,
      "Git": 8822,
      "HL": 8823,
      "MUL": 8824,
      "PLI": 8825,
      "YY": 8826,
      "historical": 8827,
      "mask": 8828,
      "oir": 8829,
      "osha": 8830,
      "rpm": 8831,
      "two": 8832,
      "umption": 8833,
      "industry": 8834,
      "rep": 8835,
      "reality": 8836,
      "select": 8837,
      "Ġfair": 8838,
      "\"\"\",": 8839,
      "Ġsqu": 8840,
      "Ġsuch": 8841,
      "Ġsibling": 8842,
      "union": 8843,
      "uning": 8844,
      "coph": 8845,
      "(\"ðŁ": 8846,
      "Ġbundle": 8847,
      "ĠCLASS": 8848,
      "ĠSchool": 8849,
      "Ġcourt": 8850,
      "ends": 8851,
      "Ġstack": 8852,
      "ĠLO": 8853,
      "ĠIt": 8854,
      "proposal": 8855,
      "ĠME": 8856,
      "ANALYSIS": 8857,
      "ĠVec": 8858,
      "comprehensive": 8859,
      "agape": 8860,
      "ĠIndex": 8861,
      "ĠUsage": 8862,
      "ĠWord": 8863,
      "Ġunrestricted": 8864,
      "Ġattest": 8865,
      "cannot": 8866,
      "ĠÎ¸": 8867,
      "=(\",\",": 8868,
      "Ġoverreach": 8869,
      "Ġroute": 8870,
      "Ġoperators": 8871,
      "Ġ404": 8872,
      "boundaries": 8873,
      "rolled": 8874,
      "Ġbackups": 8875,
      "rowser": 8876,
      "PHYS": 8877,
      "ĠActive": 8878,
      "ĠCommand": 8879,
      "Ġpartial": 8880,
      "ĠCorinth": 8881,
      "String": 8882,
      "GRADUATE": 8883,
      "ĠPROOF": 8884,
      "scheduler": 8885,
      "ĠTrap": 8886,
      "Loading": 8887,
      "fns": 8888,
      "ĠKeyError": 8889,
      "ĠArtifact": 8890,
      "'''": 8891,
      "rovements": 8892,
      "LOCAL": 8893,
      "connected": 8894,
      "Ġown": 8895,
      "âķĲâķĲâķĲâķĲâķĲâķĲâķĲâķĲâķĲâķĲâķĲâķĲâķĲâķĲâķĲâķĲ": 8896,
      "Ġdocstring": 8897,
      "square": 8898,
      "Ġapplicable": 8899,
      "Ġhypostasis": 8900,
      "Lawvere": 8901,
      "What": 8902,
      "ĠOffensive": 8903,
      "Ġsitus": 8904,
      "Ġmandatory": 8905,
      "CROSSMARK": 8906,
      "ImplementedError": 8907,
      "ENTITY": 8908,
      "YTHON": 8909,
      "ĠCorinthians": 8910,
      "'}": 8911,
      "CN": 8912,
      "Form": 8913,
      "GIV": 8914,
      "HI": 8915,
      "IO": 8916,
      "Relation": 8917,
      "bon": 8918,
      "bandwidth": 8919,
      "dtype": 8920,
      "empt": 8921,
      "gredient": 8922,
      "mt": 8923,
      "ole": 8924,
      "oint": 8925,
      "prom": 8926,
      "rm": 8927,
      "software": 8928,
      "ycoph": 8929,
      "inp": 8930,
      "regex": 8931,
      "reactor": 8932,
      "stall": 8933,
      "stone": 8934,
      "oracle": 8935,
      "Ġfrequency": 8936,
      "Ġrec": 8937,
      "Ġsensitive": 8938,
      "coordination": 8939,
      "ĠFALSIF": 8940,
      "Ġdepart": 8941,
      "imer": 8942,
      "tery": 8943,
      "Ġlattice": 8944,
      "Ġstudy": 8945,
      "ĊĊĊ": 8946,
      "jectory": 8947,
      "persist": 8948,
      "permissions": 8949,
      "omial": 8950,
      "ĠMa": 8951,
      "ĠMED": 8952,
      "Ġproxy": 8953,
      "Ġproceed": 8954,
      "acter": 8955,
      "actness": 8956,
      "setdefault": 8957,
      "ĠVersion": 8958,
      "ĠVehicle": 8959,
      "ĠBlock": 8960,
      "ARCHITECTURE": 8961,
      "ampl": 8962,
      "Ġ[]),": 8963,
      "paradox": 8964,
      "Ġautofix": 8965,
      "Ġvalidity": 8966,
      "readiness": 8967,
      "obol": 8968,
      "Covenant": 8969,
      "Ġsubmission": 8970,
      "Profile": 8971,
      "Ent": 8972,
      "ĠFileObject": 8973,
      "Ġloan": 8974,
      "Unassigned": 8975,
      "ĠGeneration": 8976,
      "preserving": 8977,
      "Ġlayers": 8978,
      "ĠPreTrained": 8979,
      "HOURS": 8980,
      "Show": 8981,
      "Ġvectors": 8982,
      "Ġoptimizer": 8983,
      "explo": 8984,
      "ĠCORPORATE": 8985,
      "AUDITS": 8986,
      "Ġclient": 8987,
      "Ġowner": 8988,
      "Ġdeploy": 8989,
      "ĠINVARIANT": 8990,
      "winning": 8991,
      "AXIOM": 8992,
      "QUASI": 8993,
      "ĠTBD": 8994,
      "GIVENESS": 8995,
      "').": 8996,
      "404": 8997,
      "ATIC": 8998,
      "CL": 8999,
      "Each": 9000,
      "FT": 9001,
      "GA": 9002,
      "Public": 9003,
      "RT": 9004,
      "]\")": 9005,
      "gression": 9006,
      "hi": 9007,
      "liness": 9008,
      "micro": 9009,
      "sil": 9010,
      "tage": 9011,
      "yield": 9012,
      "Ġ~": 9013,
      "Ġignore": 9014,
      "orum": 9015,
      "Ġrecursion": 9016,
      "edom": 9017,
      "Ġeval": 9018,
      "lomatic": 9019,
      "Ġincome": 9020,
      "Ġprimary": 9021,
      "ĠCl": 9022,
      "ĠCategorical": 9023,
      "ĠPRE": 9024,
      "ĠPlaceholder": 9025,
      "Ġdeg": 9026,
      "ĠSheaf": 9027,
      "Ġ'__": 9028,
      "Ġwarfare": 9029,
      "Ġcoherence": 9030,
      "endency": 9031,
      "ablish": 9032,
      "fromtimestamp": 9033,
      "Ġchecked": 9034,
      "ĠMorphism": 9035,
      "Ġprograms": 9036,
      "ĠBoolean": 9037,
      "Ġcompilation": 9038,
      "Ġverdict": 9039,
      "forward": 9040,
      "ocab": 9041,
      "Ġleaves": 9042,
      "commended": 9043,
      "().__": 9044,
      "Ġmachine": 9045,
      "Ġaccum": 9046,
      "OTON": 9047,
      "Ġcare": 9048,
      "Ġcanonicalization": 9049,
      "dependency": 9050,
      "lobal": 9051,
      "ConstraintType": 9052,
      "Ġsignals": 9053,
      "officer": 9054,
      "ĠAttributes": 9055,
      "Ġdemonstrates": 9056,
      "ĠTrainingResult": 9057,
      "ĠCannot": 9058,
      "Ġaccessibility": 9059,
      "Register": 9060,
      "RESOLVED": 9061,
      "referenced": 9062,
      "POLY": 9063,
      "carryover": 9064,
      "ymmetry": 9065,
      "Ġexpansion": 9066,
      "dequacy": 9067,
      "Ġlocked": 9068,
      "randint": 9069,
      "ĠUniverse": 9070,
      "equity": 9071,
      "players": 9072,
      "hypostasis": 9073,
      "ĠSignal": 9074,
      "Workflow": 9075,
      "squared": 9076,
      "Ġlegal": 9077,
      "iddleware": 9078,
      "ĠPreservation": 9079,
      "ĠMathObject": 9080,
      "Ġembedded": 9081,
      "ĠHTTP": 9082,
      "Ġlatency": 9083,
      "(\",": 9084,
      "2001": 9085,
      "CC": 9086,
      "FIED": 9087,
      "RL": 9088,
      "Red": 9089,
      "Sim": 9090,
      "STIT": 9091,
      "TAR": 9092,
      "Text": 9093,
      "VALIDATION": 9094,
      "bayesian": 9095,
      "elasticity": 9096,
      "front": 9097,
      "fetch": 9098,
      "hallucination": 9099,
      "lum": 9100,
      "nn": 9101,
      "vability": 9102,
      "vendor": 9103,
      "|\\": 9104,
      "Îµ": 9105,
      "ÎĽ": 9106,
      "Ġval": 9107,
      "Ġjoin": 9108,
      "Ġunknown": 9109,
      "atically": 9110,
      "inclusion": 9111,
      "remain": 9112,
      "ening": 9113,
      "Ġfre": 9114,
      "deviation": 9115,
      "rop": 9116,
      "herent": 9117,
      "idi": 9118,
      "ido": 9119,
      "ĠFast": 9120,
      "ĠPillar": 9121,
      "ilter": 9122,
      "ilience": 9123,
      "Ġconversations": 9124,
      "ĠSize": 9125,
      "ĠAg": 9126,
      "chitz": 9127,
      "TIN": 9128,
      "ĠLinear": 9129,
      "ĠRet": 9130,
      "propyl": 9131,
      "ucation": 9132,
      "Ġguardian": 9133,
      "ternatives": 9134,
      "setLevel": 9135,
      "Stage": 9136,
      "iber": 9137,
      "Ġengineering": 9138,
      "irm": 9139,
      "Ġexceeded": 9140,
      "ips": 9141,
      "matter": 9142,
      "extracted": 9143,
      "positories": 9144,
      "Ġdirection": 9145,
      "working": 9146,
      "registration": 9147,
      "Ġray": 9148,
      "PROJECT": 9149,
      "Exodus": 9150,
      "processor": 9151,
      "collision": 9152,
      "intervention": 9153,
      "ĠREAL": 9154,
      "TERMIN": 9155,
      "cloud": 9156,
      "Ġabsolute": 9157,
      "Lock": 9158,
      "foundations": 9159,
      "Ġpaper": 9160,
      "Ġimprovement": 9161,
      "ĠActual": 9162,
      "THEOREM": 9163,
      "ĠâĬ¢": 9164,
      "ĠFORM": 9165,
      "Ġtransformers": 9166,
      "carrier": 9167,
      "velope": 9168,
      "calculated": 9169,
      "Ġappears": 9170,
      "')}.": 9171,
      "COMMIT": 9172,
      "Ġautomated": 9173,
      "ĠDesign": 9174,
      "Overall": 9175,
      "Ġrestricted": 9176,
      "'<": 9177,
      "8601": 9178,
      "ADA": 9179,
      "Link": 9180,
      "Pos": 9181,
      "Ra": 9182,
      "Ratio": 9183,
      "bsex": 9184,
      "cir": 9185,
      "dig": 9186,
      "js": 9187,
      "my": 9188,
      "}Â°": 9189,
      "Îł": 9190,
      "ercise": 9191,
      "allocation": 9192,
      "Ġcustody": 9193,
      "integr": 9194,
      "Ġinsufficient": 9195,
      "oting": 9196,
      "Ġduty": 9197,
      "Ġdaily": 9198,
      "ĠPAT": 9199,
      "ĠDigital": 9200,
      "ĠSE": 9201,
      "ĠSome": 9202,
      "ĠSyntax": 9203,
      "Ġmy": 9204,
      "Ġwitnessed": 9205,
[...]
